<unk>	0
<s>	0
</s>	0
<0x00>	0
<0x01>	0
<0x02>	0
<0x03>	0
<0x04>	0
<0x05>	0
<0x06>	0
<0x07>	0
<0x08>	0
<0x09>	0
<0x0A>	0
<0x0B>	0
<0x0C>	0
<0x0D>	0
<0x0E>	0
<0x0F>	0
<0x10>	0
<0x11>	0
<0x12>	0
<0x13>	0
<0x14>	0
<0x15>	0
<0x16>	0
<0x17>	0
<0x18>	0
<0x19>	0
<0x1A>	0
<0x1B>	0
<0x1C>	0
<0x1D>	0
<0x1E>	0
<0x1F>	0
<0x20>	0
<0x21>	0
<0x22>	0
<0x23>	0
<0x24>	0
<0x25>	0
<0x26>	0
<0x27>	0
<0x28>	0
<0x29>	0
<0x2A>	0
<0x2B>	0
<0x2C>	0
<0x2D>	0
<0x2E>	0
<0x2F>	0
<0x30>	0
<0x31>	0
<0x32>	0
<0x33>	0
<0x34>	0
<0x35>	0
<0x36>	0
<0x37>	0
<0x38>	0
<0x39>	0
<0x3A>	0
<0x3B>	0
<0x3C>	0
<0x3D>	0
<0x3E>	0
<0x3F>	0
<0x40>	0
<0x41>	0
<0x42>	0
<0x43>	0
<0x44>	0
<0x45>	0
<0x46>	0
<0x47>	0
<0x48>	0
<0x49>	0
<0x4A>	0
<0x4B>	0
<0x4C>	0
<0x4D>	0
<0x4E>	0
<0x4F>	0
<0x50>	0
<0x51>	0
<0x52>	0
<0x53>	0
<0x54>	0
<0x55>	0
<0x56>	0
<0x57>	0
<0x58>	0
<0x59>	0
<0x5A>	0
<0x5B>	0
<0x5C>	0
<0x5D>	0
<0x5E>	0
<0x5F>	0
<0x60>	0
<0x61>	0
<0x62>	0
<0x63>	0
<0x64>	0
<0x65>	0
<0x66>	0
<0x67>	0
<0x68>	0
<0x69>	0
<0x6A>	0
<0x6B>	0
<0x6C>	0
<0x6D>	0
<0x6E>	0
<0x6F>	0
<0x70>	0
<0x71>	0
<0x72>	0
<0x73>	0
<0x74>	0
<0x75>	0
<0x76>	0
<0x77>	0
<0x78>	0
<0x79>	0
<0x7A>	0
<0x7B>	0
<0x7C>	0
<0x7D>	0
<0x7E>	0
<0x7F>	0
<0x80>	0
<0x81>	0
<0x82>	0
<0x83>	0
<0x84>	0
<0x85>	0
<0x86>	0
<0x87>	0
<0x88>	0
<0x89>	0
<0x8A>	0
<0x8B>	0
<0x8C>	0
<0x8D>	0
<0x8E>	0
<0x8F>	0
<0x90>	0
<0x91>	0
<0x92>	0
<0x93>	0
<0x94>	0
<0x95>	0
<0x96>	0
<0x97>	0
<0x98>	0
<0x99>	0
<0x9A>	0
<0x9B>	0
<0x9C>	0
<0x9D>	0
<0x9E>	0
<0x9F>	0
<0xA0>	0
<0xA1>	0
<0xA2>	0
<0xA3>	0
<0xA4>	0
<0xA5>	0
<0xA6>	0
<0xA7>	0
<0xA8>	0
<0xA9>	0
<0xAA>	0
<0xAB>	0
<0xAC>	0
<0xAD>	0
<0xAE>	0
<0xAF>	0
<0xB0>	0
<0xB1>	0
<0xB2>	0
<0xB3>	0
<0xB4>	0
<0xB5>	0
<0xB6>	0
<0xB7>	0
<0xB8>	0
<0xB9>	0
<0xBA>	0
<0xBB>	0
<0xBC>	0
<0xBD>	0
<0xBE>	0
<0xBF>	0
<0xC0>	0
<0xC1>	0
<0xC2>	0
<0xC3>	0
<0xC4>	0
<0xC5>	0
<0xC6>	0
<0xC7>	0
<0xC8>	0
<0xC9>	0
<0xCA>	0
<0xCB>	0
<0xCC>	0
<0xCD>	0
<0xCE>	0
<0xCF>	0
<0xD0>	0
<0xD1>	0
<0xD2>	0
<0xD3>	0
<0xD4>	0
<0xD5>	0
<0xD6>	0
<0xD7>	0
<0xD8>	0
<0xD9>	0
<0xDA>	0
<0xDB>	0
<0xDC>	0
<0xDD>	0
<0xDE>	0
<0xDF>	0
<0xE0>	0
<0xE1>	0
<0xE2>	0
<0xE3>	0
<0xE4>	0
<0xE5>	0
<0xE6>	0
<0xE7>	0
<0xE8>	0
<0xE9>	0
<0xEA>	0
<0xEB>	0
<0xEC>	0
<0xED>	0
<0xEE>	0
<0xEF>	0
<0xF0>	0
<0xF1>	0
<0xF2>	0
<0xF3>	0
<0xF4>	0
<0xF5>	0
<0xF6>	0
<0xF7>	0
<0xF8>	0
<0xF9>	0
<0xFA>	0
<0xFB>	0
<0xFC>	0
<0xFD>	0
<0xFE>	0
<0xFF>	0
▁t	-0
ng	-1
▁c	-2
▁th	-3
▁a	-4
▁đ	-5
nh	-6
▁s	-7
▁h	-8
▁v	-9
▁b	-10
er	-11
▁l	-12
▁m	-13
on	-14
▁the	-15
or	-16
▁p	-17
▁i	-18
es	-19
▁d	-20
▁ch	-21
at	-22
▁tr	-23
▁n	-24
en	-25
▁k	-26
▁g	-27
an	-28
▁<	-29
▁T	-30
re	-31
▁o	-32
ar	-33
▁nh	-34
is	-35
nd	-36
▁w	-37
ing	-38
al	-39
ác	-40
os	-41
▁f	-42
in	-43
▁to	-44
it	-45
▁kh	-46
▁và	-47
ou	-48
▁of	-49
ed	-50
▁ph	-51
ion	-52
▁gi	-53
ic	-54
▁and	-55
▁ng	-56
qu	-57
us	-58
▁in	-59
▁C	-60
▁Th	-61
▁r	-62
▁củ	-63
▁của	-64
iệ	-65
th	-66
as	-67
▁qu	-68
le	-69
ch	-70
ro	-71
ent	-72
ông	-73
ên	-74
▁là	-75
▁có	-76
▁S	-77
▁is	-78
▁e	-79
il	-80
el	-81
▁1	-82
..	-83
▁x	-84
ượ	-85
ay	-86
▁B	-87
iế	-88
▁các	-89
▁-	-90
ct	-91
om	-92
▁A	-93
▁N	-94
▁The	-95
▁M	-96
▁(	-97
▁2	-98
id	-99
ột	-100
ời	-101
▁re	-102
et	-103
▁that	-104
uy	-105
ới	-106
▁I	-107
ược	-108
ong	-109
am	-110
ày	-111
eos	-112
▁một	-113
▁P	-114
▁ho	-115
▁H	-116
ur	-117
▁được	-118
ve	-119
ất	-120
ce	-121
ation	-122
ers	-123
▁y	-124
vis	-125
ại	-126
ol	-127
ot	-128
▁au	-129
▁for	-130
▁be	-131
▁thể	-132
jar	-133
genesis	-134
thor	-135
▁author	-136
user	-137
▁or	-138
ình	-139
ạn	-140
ad	-141
iề	-142
▁cho	-143
▁D	-144
▁L	-145
ig	-146
▁trong	-147
ản	-148
▁on	-149
bos	-150
ir	-151
▁con	-152
im	-153
iể	-154
ow	-155
ut	-156
ly	-157
▁pro	-158
▁này	-159
▁giả	-160
▁an	-161
ts	-162
ôi	-163
ang	-164
em	-165
iên	-166
ân	-167
iện	-168
▁không	-169
um	-170
▁W	-171
▁với	-172
▁F	-173
▁as	-174
▁ngh	-175
▁Đ	-176
▁G	-177
▁are	-178
iều	-179
▁R	-180
ess	-181
ười	-182
ằng	-183
▁st	-184
ành	-185
ung	-186
ững	-187
00	-188
▁V	-189
ặc	-190
ần	-191
ận	-192
▁wh	-193
▁để	-194
ao	-195
ith	-196
ag	-197
▁người	-198
▁về	-199
ực	-200
▁họ	-201
ter	-202
▁you	-203
ến	-204
ak	-205
ul	-206
▁3	-207
▁độ	-208
▁al	-209
ài	-210
▁lo	-211
ối	-212
ie	-213
ức	-214
ain	-215
pp	-216
un	-217
úng	-218
ac	-219
▁su	-220
est	-221
ính	-222
ex	-223
ăn	-224
▁with	-225
iết	-226
▁những	-227
ướ	-228
▁K	-229
▁dụ	-230
▁hoặc	-231
ab	-232
ver	-233
▁bạn	-234
ập	-235
▁đã	-236
▁đị	-237
and	-238
▁ra	-239
▁nă	-240
▁số	-241
▁it	-242
▁we	-243
ết	-244
ươ	-245
▁this	-246
▁do	-247
▁ha	-248
▁Ch	-249
if	-250
▁như	-251
igh	-252
ật	-253
ơn	-254
▁"	-255
ld	-256
ườ	-257
ầu	-258
▁quan	-259
▁tác	-260
▁E	-261
ort	-262
ương	-263
au	-264
vid	-265
ill	-266
mp	-267
ext	-268
ây	-269
od	-270
ích	-271
ải	-272
▁đến	-273
ường	-274
ấp	-275
▁tôi	-276
▁từ	-277
inh	-278
▁ex	-279
ity	-280
ate	-281
iệc	-282
anh	-283
àng	-284
ec	-285
ore	-286
âu	-287
▁com	-288
ect	-289
ri	-290
▁khác	-291
▁4	-292
st	-293
op	-294
▁sự	-295
▁O	-296
▁dụng	-297
▁định	-298
▁cả	-299
ước	-300
ấy	-301
▁20	-302
▁sh	-303
▁ở	-304
se	-305
▁việc	-306
ere	-307
▁=	-308
▁vào	-309
▁text	-310
iểm	-311
▁J	-312
▁chúng	-313
▁đó	-314
ra	-315
▁quy	-316
▁can	-317
▁u	-318
▁giá	-319
▁nó	-320
▁thu	-321
▁us	-322
▁công	-323
▁5	-324
▁by	-325
áng	-326
ive	-327
▁at	-328
▁bản	-329
▁their	-330
êu	-331
ies	-332
▁cách	-333
án	-334
iệu	-335
ear	-336
▁mà	-337
▁sử	-338
ào	-339
▁imp	-340
ist	-341
rom	-342
ment	-343
ant	-344
▁phá	-345
▁lu	-346
▁rằng	-347
ợp	-348
▁đề	-349
▁khi	-350
our	-351
iến	-352
▁'	-353
▁ar	-354
ther	-355
▁cấp	-356
all	-357
ence	-358
▁hợp	-359
▁sẽ	-360
▁ne	-361
▁trên	-362
▁thành	-363
▁động	-364
for	-365
ust	-366
ia	-367
▁chính	-368
ions	-369
out	-370
ial	-371
ould	-372
▁hơn	-373
end	-374
oc	-375
àn	-376
ai	-377
▁“	-378
ok	-379
▁tin	-380
▁from	-381
▁not	-382
ack	-383
ứng	-384
ue	-385
la	-386
iv	-387
▁năm	-388
ục	-389
pt	-390
▁Nh	-391
▁bằng	-392
ine	-393
per	-394
iz	-395
ảo	-396
▁làm	-397
▁ab	-398
▁hiện	-399
▁thông	-400
ạo	-401
ống	-402
ội	-403
ud	-404
▁have	-405
▁lý	-406
ùng	-407
ber	-408
▁tại	-409
so	-410
▁hàng	-411
▁wor	-412
ake	-413
ell	-414
ail	-415
▁6	-416
ánh	-417
ich	-418
ard	-419
▁theo	-420
ền	-421
▁U	-422
ure	-423
áo	-424
ip	-425
▁provid	-426
enc	-427
▁thực	-428
▁This	-429
▁ad	-430
form	-431
art	-432
▁đồ	-433
uyên	-434
▁se	-435
ổi	-436
ome	-437
▁sp	-438
able	-439
▁văn	-440
▁điều	-441
▁điểm	-442
ạt	-443
ũng	-444
uct	-445
▁also	-446
▁has	-447
▁học	-448
ight	-449
▁Tr	-450
▁đầu	-451
ance	-452
og	-453
ượng	-454
ếu	-455
ition	-456
ái	-457
▁nhất	-458
ason	-459
ịch	-460
▁201	-461
ốc	-462
iew	-463
▁In	-464
▁ta	-465
lic	-466
age	-467
▁nhà	-468
ách	-469
▁(1	-470
▁*	-471
▁cũng	-472
òng	-473
▁Ng	-474
▁nào	-475
▁so	-476
▁St	-477
ost	-478
ff	-479
▁cu	-480
ice	-481
êm	-482
▁your	-483
ộc	-484
ăng	-485
iểu	-486
▁will	-487
▁mu	-488
▁+	-489
ơi	-490
▁ý	-491
act	-492
ik	-493
▁trình	-494
ical	-495
ọng	-496
ast	-497
▁nhân	-498
▁lại	-499
ap	-500
ắc	-501
▁cung	-502
ưở	-503
▁câu	-504
iệm	-505
▁tiế	-506
▁nhiều	-507
ach	-508
fer	-509
▁phải	-510
ations	-511
ặt	-512
ẩm	-513
▁de	-514
▁ngày	-515
▁(2	-516
ưởng	-517
âm	-518
cl	-519
▁pr	-520
▁luận	-521
ấn	-522
).	-523
▁j	-524
▁kết	-525
▁quả	-526
▁năng	-527
ents	-528
▁sản	-529
▁chỉ	-530
▁thời	-531
úc	-532
ưa	-533
▁hành	-534
▁main	-535
--	-536
are	-537
▁reason	-538
▁8	-539
▁comp	-540
cc	-541
▁sau	-542
▁kho	-543
##	-544
▁di	-545
▁gia	-546
▁bị	-547
ind	-548
iêu	-549
▁vụ	-550
ỏi	-551
▁Ph	-552
▁dự	-553
▁le	-554
▁7	-555
ẫn	-556
▁which	-557
▁more	-558
▁mình	-559
▁Y	-560
ữa	-561
20	-562
▁0	-563
uyệ	-564
▁about	-565
▁10	-566
▁app	-567
ous	-568
▁fe	-569
▁xu	-570
▁viên	-571
ọn	-572
iển	-573
▁cơ	-574
ated	-575
▁bao	-576
▁tạo	-577
▁me	-578
ase	-579
▁đang	-580
ge	-581
▁they	-582
▁res	-583
▁(2)	-584
▁(1)	-585
ph	-586
▁thế	-587
ally	-588
▁cont	-589
▁was	-590
▁pl	-591
ắt	-592
▁inform	-593
ey	-594
▁nhận	-595
gh	-596
ound	-597
▁trọng	-598
pl	-599
ite	-600
ign	-601
▁đồng	-602
▁giải	-603
oun	-604
▁tổ	-605
▁ser	-606
▁cần	-607
▁he	-608
ib	-609
▁đối	-610
duct	-611
ậy	-612
▁Q	-613
▁hình	-614
ốn	-615
iệt	-616
ide	-617
ood	-618
▁all	-619
ưu	-620
▁val	-621
▁bo	-622
▁lượng	-623
▁phẩm	-624
ans	-625
▁lời	-626
▁tính	-627
ks	-628
ốt	-629
ôn	-630
▁un	-631
▁trị	-632
▁up	-633
...	-634
▁9	-635
ry	-636
▁ev	-637
▁trường	-638
:.	-639
ish	-640
ress	-641
ìm	-642
ạnh	-643
ỗi	-644
▁vì	-645
át	-646
▁tháng	-647
▁liên	-648
ll	-649
ấu	-650
óa	-651
▁und	-652
▁thấy	-653
▁information	-654
▁phần	-655
ary	-656
▁loại	-657
ves	-658
ub	-659
▁nên	-660
iệp	-661
▁ấy	-662
▁nước	-663
▁liệu	-664
oin	-665
▁em	-666
▁but	-667
▁Gi	-668
▁phí	-669
▁Kh	-670
▁anh	-671
▁cao	-672
▁thiết	-673
▁import	-674
▁out	-675
▁tiếp	-676
▁bộ	-677
ễn	-678
ime	-679
▁may	-680
▁phát	-681
ens	-682
ạng	-683
▁id	-684
▁reasoning	-685
ences	-686
▁bảo	-687
▁lập	-688
▁19	-689
ose	-690
▁biết	-691
▁des	-692
one	-693
any	-694
▁hỏi	-695
▁co	-696
▁sinh	-697
ee	-698
▁Ad	-699
ass	-700
▁trả	-701
▁hệ	-702
ough	-703
ult	-704
▁chọn	-705
▁its	-706
ire	-707
▁lik	-708
▁hai	-709
▁thức	-710
ame	-711
▁need	-712
▁đây	-713
av	-714
▁Điều	-715
ảng	-716
com	-717
ely	-718
laim	-719
▁trước	-720
ợi	-721
▁read	-722
▁nghĩ	-723
ark	-724
úp	-725
▁gì	-726
▁qua	-727
ộng	-728
▁mới	-729
▁xem	-730
▁xuất	-731
ạc	-732
▁tìm	-733
▁thứ	-734
▁product	-735
own	-736
▁lớ	-737
ảnh	-738
▁cl	-739
▁Re	-740
▁any	-741
▁We	-742
▁ass	-743
▁chứng	-744
▁claim	-745
▁pos	-746
▁pers	-747
▁hội	-748
ath	-749
▁chức	-750
▁thì	-751
▁cảm	-752
▁tự	-753
ọi	-754
view	-755
òn	-756
pport	-757
▁ty	-758
ile	-759
ink	-760
▁pháp	-761
▁vị	-762
ond	-763
▁per	-764
oài	-765
út	-766
ree	-767
umber	-768
▁12	-769
▁khách	-770
▁one	-771
▁dẫn	-772
▁cầu	-773
áp	-774
▁add	-775
▁Sh	-776
▁there	-777
▁vậy	-778
▁hay	-779
ew	-780
▁nhau	-781
▁arg	-782
▁int	-783
ument	-784
ob	-785
iền	-786
ọc	-787
▁gian	-788
▁giúp	-789
oll	-790
▁&	-791
▁bài	-792
ồm	-793
▁Qu	-794
▁our	-795
▁nhưng	-796
▁trợ	-797
▁thêm	-798
▁It	-799
▁these	-800
pect	-801
▁cập	-802
▁trung	-803
▁hiệu	-804
▁gồm	-805
ount	-806
▁ind	-807
▁thích	-808
▁kỳ	-809
ors	-810
ãy	-811
▁trang	-812
ious	-813
▁new	-814
▁giới	-815
▁tu	-816
▁tập	-817
▁đo	-818
▁cons	-819
▁cô	-820
▁tế	-821
▁log	-822
▁make	-823
ific	-824
▁đưa	-825
▁chất	-826
▁tài	-827
▁web	-828
▁Wh	-829
▁chuy	-830
▁nghiệp	-831
▁đi	-832
▁xác	-833
▁tích	-834
▁tâm	-835
▁dịch	-836
▁cre	-837
▁chủ	-838
▁vật	-839
erst	-840
▁hoạt	-841
▁cuộc	-842
ick	-843
rit	-844
clud	-845
▁tư	-846
▁te	-847
▁cùng	-848
▁evid	-849
ings	-850
▁how	-851
▁ảnh	-852
áy	-853
!.	-854
tern	-855
▁hóa	-856
wn	-857
▁phương	-858
▁cứ	-859
▁bel	-860
▁sách	-861
lect	-862
▁other	-863
▁en	-864
▁high	-865
▁ide	-866
▁argument	-867
ays	-868
▁quyết	-869
▁bất	-870
ắn	-871
▁bu	-872
ển	-873
ater	-874
▁thị	-875
▁tốt	-876
ét	-877
▁|	-878
ồn	-879
▁cụ	-880
▁some	-881
gg	-882
▁200	-883
▁truy	-884
▁could	-885
▁nói	-886
▁khu	-887
▁value	-888
▁X	-889
ates	-890
▁evidence	-891
▁art	-892
uc	-893
ướng	-894
▁Các	-895
▁exper	-896
rong	-897
erstand	-898
ese	-899
▁rất	-900
ps	-901
▁phân	-902
▁án	-903
▁dis	-904
▁If	-905
==	-906
uyện	-907
ảm	-908
▁•	-909
▁pe	-910
▁yêu	-911
▁tw	-912
▁tiêu	-913
▁thuật	-914
ys	-915
ade	-916
ild	-917
▁acc	-918
▁Tôi	-919
".	-920
lo	-921
▁should	-922
▁them	-923
▁hiểu	-924
▁over	-925
▁đổi	-926
ft	-927
▁kế	-928
ption	-929
▁his	-930
▁vi	-931
▁sở	-932
▁cá	-933
▁còn	-934
vel	-935
▁rec	-936
0.	-937
▁chiế	-938
ual	-939
▁toàn	-940
ồi	-941
▁go	-942
▁work	-943
**	-944
▁support	-945
▁hỗ	-946
ựa	-947
ord	-948
▁mặt	-949
▁kinh	-950
▁ăn	-951
▁time	-952
ởi	-953
▁provide	-954
les	-955
▁mỗi	-956
▁đánh	-957
▁hạn	-958
▁understand	-959
▁15	-960
▁muốn	-961
▁Tác	-962
▁thống	-963
now	-964
ory	-965
▁[	-966
▁hel	-967
▁use	-968
▁well	-969
▁–	-970
▁Những	-971
▁Add	-972
▁lớn	-973
▁thay	-974
',	-975
▁pre	-976
▁act	-977
▁thường	-978
li	-979
▁year	-980
▁giờ	-981
▁xe	-982
ắng	-983
▁viết	-984
ility	-985
erm	-986
anc	-987
▁kiện	-988
te	-989
▁báo	-990
▁been	-991
▁tham	-992
▁trở	-993
ience	-994
ép	-995
▁nhiên	-996
ệnh	-997
ẩn	-998
▁vực	-999
▁mạnh	-1000
use	-1001
ậu	-1002
▁chi	-1003
▁pres	-1004
▁quyền	-1005
ential	-1006
day	-1007
ov	-1008
▁comm	-1009
▁part	-1010
▁tình	-1011
ople	-1012
ửa	-1013
▁lưu	-1014
ẳng	-1015
▁mục	-1016
▁number	-1017
▁đường	-1018
▁dif	-1019
▁ứng	-1020
ạch	-1021
▁includ	-1022
▁/	-1023
▁đại	-1024
ons	-1025
▁bl	-1026
▁phòng	-1027
ầm	-1028
pe	-1029
▁địa	-1030
▁who	-1031
▁get	-1032
ating	-1033
▁bố	-1034
----	-1035
▁take	-1036
ám	-1037
▁nếu	-1038
▁spec	-1039
óng	-1040
▁does	-1041
▁doanh	-1042
ưới	-1043
▁Bạn	-1044
▁if	-1045
ative	-1046
▁vấn	-1047
▁than	-1048
sequ	-1049
ạm	-1050
▁triển	-1051
▁nghiệm	-1052
▁sáng	-1053
▁To	-1054
▁att	-1055
▁chu	-1056
▁11	-1057
▁off	-1058
▁lên	-1059
▁am	-1060
\_	-1061
ian	-1062
ont	-1063
ful	-1064
▁nghĩa	-1065
gr	-1066
▁bet	-1067
iqu	-1068
we	-1069
ased	-1070
ock	-1071
▁view	-1072
▁chuyển	-1073
▁1.	-1074
old	-1075
▁dùng	-1076
▁belie	-1077
▁danh	-1078
ace	-1079
lications	-1080
▁serv	-1081
▁my	-1082
ures	-1083
▁people	-1084
ices	-1085
▁sc	-1086
▁consequ	-1087
▁xét	-1088
▁tưởng	-1089
uyến	-1090
ement	-1091
▁her	-1092
▁gr	-1093
▁trí	-1094
bo	-1095
ven	-1096
uyệt	-1097
ider	-1098
ality	-1099
ăm	-1100
pr	-1101
▁sống	-1102
ning	-1103
▁điện	-1104
000	-1105
amp	-1106
▁quá	-1107
▁New	-1108
▁tiết	-1109
▁ký	-1110
▁assum	-1111
▁ro	-1112
▁det	-1113
▁dân	-1114
),	-1115
ities	-1116
."	-1117
óm	-1118
▁tất	-1119
▁consequences	-1120
▁cảnh	-1121
▁tiền	-1122
▁sao	-1123
urther	-1124
ments	-1125
▁used	-1126
cri	-1127
▁đơn	-1128
very	-1129
▁nơi	-1130
▁2.	-1131
ene	-1132
▁Nếu	-1133
▁An	-1134
▁world	-1135
▁bec	-1136
”.	-1137
▁col	-1138
▁khả	-1139
ject	-1140
▁chơi	-1141
ract	-1142
▁18	-1143
▁quest	-1144
▁máy	-1145
▁\	-1146
▁Addition	-1147
▁pur	-1148
▁truyền	-1149
▁loc	-1150
its	-1151
▁poin	-1152
▁dec	-1153
▁br	-1154
▁tử	-1155
▁like	-1156
urr	-1157
▁nghệ	-1158
▁cứu	-1159
▁đặt	-1160
▁would	-1161
▁quốc	-1162
aking	-1163
▁emp	-1164
ize	-1165
▁no	-1166
▁Pro	-1167
▁bình	-1168
ble	-1169
irst	-1170
▁tăng	-1171
▁sa	-1172
▁mi	-1173
▁two	-1174
▁giảm	-1175
▁lực	-1176
▁mang	-1177
▁tương	-1178
▁sugg	-1179
▁tổng	-1180
▁ment	-1181
▁inter	-1182
▁ban	-1183
▁Com	-1184
▁chiếc	-1185
ton	-1186
▁Additionally	-1187
▁bởi	-1188
▁eff	-1189
▁biệt	-1190
▁back	-1191
ìn	-1192
▁tra	-1193
▁pot	-1194
▁hoàn	-1195
ause	-1196
▁important	-1197
▁nhiệm	-1198
▁30	-1199
ery	-1200
icle	-1201
▁$	-1202
▁such	-1203
▁giữa	-1204
▁mua	-1205
ode	-1206
▁tiên	-1207
io	-1208
ool	-1209
ash	-1210
▁màu	-1211
▁ag	-1212
▁Ar	-1213
▁phố	-1214
▁mô	-1215
ise	-1216
▁bán	-1217
▁bắt	-1218
▁what	-1219
▁lịch	-1220
▁help	-1221
▁think	-1222
/20	-1223
-1	-1224
ily	-1225
mer	-1226
ique	-1227
▁sĩ	-1228
ages	-1229
▁implications	-1230
ollow	-1231
ict	-1232
▁nguyên	-1233
▁How	-1234
ces	-1235
▁giao	-1236
▁biến	-1237
▁bên	-1238
iness	-1239
▁var	-1240
▁đọc	-1241
▁gó	-1242
▁differ	-1243
▁feel	-1244
▁mọi	-1245
▁Trong	-1246
▁tho	-1247
▁being	-1248
▁He	-1249
▁importance	-1250
▁Câu	-1251
▁design	-1252
▁provides	-1253
▁lần	-1254
▁kiểm	-1255
▁trực	-1256
▁De	-1257
ights	-1258
ting	-1259
▁khoản	-1260
__	-1261
▁##	-1262
tal	-1263
iss	-1264
▁3.	-1265
▁look	-1266
▁đăng	-1267
▁diễn	-1268
▁(3	-1269
▁dài	-1270
▁know	-1271
ty	-1272
ảy	-1273
▁mức	-1274
ues	-1275
▁Do	-1276
▁reg	-1277
sw	-1278
▁nhạc	-1279
fore	-1280
▁each	-1281
▁when	-1282
▁fact	-1283
▁thủ	-1284
▁av	-1285
▁many	-1286
▁cộng	-1287
▁gre	-1288
▁Al	-1289
▁into	-1290
▁nhỏ	-1291
ert	-1292
▁kiến	-1293
▁potential	-1294
▁ngoài	-1295
als	-1296
ustom	-1297
▁most	-1298
▁đều	-1299
▁using	-1300
▁min	-1301
uation	-1302
▁la	-1303
▁consider	-1304
ork	-1305
▁man	-1306
▁sức	-1307
▁Văn	-1308
ẫu	-1309
▁rel	-1310
▁sol	-1311
ics	-1312
▁anal	-1313
▁bệnh	-1314
▁total	-1315
▁#	-1316
line	-1317
▁lợi	-1318
ruct	-1319
clus	-1320
row	-1321
▁chế	-1322
▁stud	-1323
der	-1324
iếm	-1325
▁trò	-1326
òa	-1327
ange	-1328
ife	-1329
▁just	-1330
▁phép	-1331
▁quản	-1332
▁đặc	-1333
▁Mar	-1334
▁person	-1335
uồn	-1336
con	-1337
▁kỹ	-1338
▁hướng	-1339
▁14	-1340
▁cáo	-1341
oh	-1342
ne	-1343
ible	-1344
ah	-1345
▁Anh	-1346
▁see	-1347
lu	-1348
uyết	-1349
▁own	-1350
▁16	-1351
1.	-1352
▁tiếng	-1353
ets	-1354
atch	-1355
▁chiến	-1356
▁gh	-1357
▁both	-1358
ui	-1359
▁Chúng	-1360
▁hộ	-1361
▁follow	-1362
oy	-1363
▁As	-1364
▁Có	-1365
▁đất	-1366
▁phù	-1367
▁key	-1368
ồng	-1369
▁lựa	-1370
▁tuyệt	-1371
ving	-1372
ove	-1373
▁Vì	-1374
▁You	-1375
ru	-1376
▁conf	-1377
▁Một	-1378
rough	-1379
5.	-1380
ằm	-1381
▁idea	-1382
▁For	-1383
2.	-1384
50	-1385
▁đủ	-1386
▁minh	-1387
iê	-1388
▁phục	-1389
land	-1390
▁suy	-1391
▁Un	-1392
▁gần	-1393
ower	-1394
ular	-1395
▁she	-1396
▁bỏ	-1397
iếu	-1398
ắp	-1399
urn	-1400
▁thương	-1401
▁play	-1402
usiness	-1403
ems	-1404
he	-1405
▁xã	-1406
lease	-1407
▁inv	-1408
▁car	-1409
....	-1410
▁chung	-1411
▁24	-1412
àm	-1413
▁article	-1414
ấm	-1415
iềm	-1416
▁âm	-1417
▁because	-1418
▁.	-1419
▁yếu	-1420
▁ông	-1421
▁lead	-1422
▁These	-1423
air	-1424
▁first	-1425
ừa	-1426
▁logical	-1427
▁rõ	-1428
▁By	-1429
▁nội	-1430
▁There	-1431
▁believes	-1432
▁đáng	-1433
▁Ngoài	-1434
▁Sp	-1435
10	-1436
ầy	-1437
ón	-1438
▁find	-1439
▁ích	-1440
▁answ	-1441
▁mon	-1442
▁hưởng	-1443
ient	-1444
▁toán	-1445
▁custom	-1446
▁luật	-1447
▁ac	-1448
9.	-1449
akes	-1450
tt	-1451
und	-1452
▁Le	-1453
lace	-1454
▁đoạn	-1455
▁khí	-1456
▁4.	-1457
ness	-1458
▁lòng	-1459
ety	-1460
▁kiếm	-1461
▁were	-1462
▁address	-1463
fter	-1464
▁miễn	-1465
▁sy	-1466
▁đúng	-1467
gan	-1468
▁đảm	-1469
▁tuyên	-1470
▁100	-1471
▁sub	-1472
▁way	-1473
▁####	-1474
raw	-1475
ứa	-1476
▁expl	-1477
elf	-1478
?.	-1479
ests	-1480
▁ngữ	-1481
az	-1482
▁giáo	-1483
▁cuối	-1484
ale	-1485
▁tục	-1486
▁Fr	-1487
▁different	-1488
▁hậu	-1489
▁hãy	-1490
▁thuộc	-1491
▁nghiên	-1492
▁13	-1493
▁experience	-1494
▁chuyên	-1495
hip	-1496
▁tả	-1497
▁reader	-1498
▁chuyện	-1499
▁thanh	-1500
▁cố	-1501
ailable	-1502
red	-1503
▁par	-1504
▁answer	-1505
▁đạo	-1506
oph	-1507
urrent	-1508
ccess	-1509
thing	-1510
▁diện	-1511
▁through	-1512
▁nghi	-1513
▁Nó	-1514
22	-1515
▁likely	-1516
els	-1517
▁rem	-1518
led	-1519
has	-1520
▁nguồn	-1521
▁tối	-1522
▁effect	-1523
▁Hãy	-1524
ặp	-1525
▁US	-1526
▁tượng	-1527
óc	-1528
the	-1529
▁biểu	-1530
▁inc	-1531
▁wee	-1532
▁cle	-1533
▁nữa	-1534
ends	-1535
▁phạm	-1536
ives	-1537
more	-1538
▁dựng	-1539
ational	-1540
▁độc	-1541
▁day	-1542
▁exp	-1543
up	-1544
▁op	-1545
alth	-1546
▁Se	-1547
▁Thông	-1548
▁Bl	-1549
▁stat	-1550
▁emphas	-1551
▁dành	-1552
▁good	-1553
olog	-1554
▁rep	-1555
arm	-1556
ừng	-1557
▁perspect	-1558
ner	-1559
▁tên	-1560
▁fin	-1561
▁sec	-1562
otion	-1563
▁present	-1564
earch	-1565
▁(3)	-1566
▁mối	-1567
oss	-1568
▁dựa	-1569
▁giác	-1570
▁show	-1571
ideo	-1572
▁crit	-1573
'.	-1574
ited	-1575
ank	-1576
▁disc	-1577
▁dữ	-1578
▁every	-1579
ếp	-1580
▁long	-1581
enef	-1582
iêng	-1583
uring	-1584
▁chương	-1585
▁Cl	-1586
▁phản	-1587
▁phụ	-1588
▁quality	-1589
raph	-1590
▁dễ	-1591
▁gọi	-1592
▁dung	-1593
▁Pr	-1594
▁cái	-1595
ved	-1596
▁Đây	-1597
3.	-1598
▁Để	-1599
▁set	-1600
▁position	-1601
▁trú	-1602
ener	-1603
ạp	-1604
▁dưới	-1605
▁sit	-1606
ards	-1607
▁years	-1608
▁adv	-1609
▁cực	-1610
====	-1611
velop	-1612
blem	-1613
▁purp	-1614
▁only	-1615
▁then	-1616
ours	-1617
▁offer	-1618
ít	-1619
itt	-1620
▁thiện	-1621
alle	-1622
▁made	-1623
▁What	-1624
▁had	-1625
▁trẻ	-1626
▁fl	-1627
▁tuổi	-1628
▁kể	-1629
▁question	-1630
▁ba	-1631
▁current	-1632
ull	-1633
▁đình	-1634
mm	-1635
ouse	-1636
▁phim	-1637
▁Be	-1638
▁ins	-1639
ắm	-1640
▁sign	-1641
30	-1642
ails	-1643
▁benef	-1644
▁line	-1645
▁points	-1646
▁chưa	-1647
ẹp	-1648
▁mor	-1649
4.	-1650
▁cổ	-1651
▁available	-1652
▁khó	-1653
▁best	-1654
▁business	-1655
▁:	-1656
▁Further	-1657
▁cây	-1658
▁sắc	-1659
▁problem	-1660
ata	-1661
▁đích	-1662
▁5.	-1663
▁Công	-1664
▁under	-1665
.”	-1666
▁bánh	-1667
▁company	-1668
▁specific	-1669
ãi	-1670
▁xúc	-1671
uss	-1672
▁Br	-1673
▁vời	-1674
▁vis	-1675
▁lệ	-1676
▁nhóm	-1677
▁tim	-1678
▁feat	-1679
▁commun	-1680
8.	-1681
▁50	-1682
chool	-1683
▁xây	-1684
▁vui	-1685
ivers	-1686
iel	-1687
▁sm	-1688
▁nhập	-1689
ween	-1690
▁Ho	-1691
chn	-1692
7.	-1693
▁áp	-1694
▁gây	-1695
▁draw	-1696
▁Furthermore	-1697
▁thân	-1698
▁25	-1699
▁success	-1700
▁inst	-1701
ivid	-1702
▁Z	-1703
eck	-1704
▁Ex	-1705
▁1)	-1706
▁sk	-1707
ather	-1708
▁tầm	-1709
▁fam	-1710
▁2)	-1711
▁Bộ	-1712
▁đầy	-1713
▁Người	-1714
▁khiến	-1715
lish	-1716
▁tranh	-1717
ames	-1718
▁sim	-1719
▁‘	-1720
ữu	-1721
▁đóng	-1722
be	-1723
ẵn	-1724
▁cửa	-1725
▁hồ	-1726
ix	-1727
▁down	-1728
▁nhiêu	-1729
ưng	-1730
▁nổi	-1731
ượt	-1732
▁ví	-1733
▁Gr	-1734
▁mod	-1735
▁between	-1736
▁món	-1737
▁aw	-1738
▁hữu	-1739
aw	-1740
-2	-1741
▁fr	-1742
▁order	-1743
▁khoảng	-1744
▁riêng	-1745
▁dạng	-1746
▁mù	-1747
▁feeling	-1748
▁sát	-1749
ep	-1750
▁home	-1751
▁tay	-1752
▁char	-1753
6.	-1754
▁chia	-1755
▁top	-1756
▁rộng	-1757
▁And	-1758
▁nhìn	-1759
▁Nhà	-1760
of	-1761
▁equ	-1762
12	-1763
code	-1764
▁sơ	-1765
▁where	-1766
ohn	-1767
oci	-1768
▁đạt	-1769
▁Con	-1770
▁On	-1771
orn	-1772
▁highl	-1773
▁chỉnh	-1774
cess	-1775
▁tố	-1776
▁while	-1777
▁form	-1778
ổng	-1779
iously	-1780
ants	-1781
▁dục	-1782
ins	-1783
▁life	-1784
ug	-1785
▁cải	-1786
▁trải	-1787
/2	-1788
▁ca	-1789
▁sẵn	-1790
▁mark	-1791
ern	-1792
int	-1793
▁vẫn	-1794
▁great	-1795
ars	-1796
rect	-1797
▁book	-1798
ạy	-1799
ution	-1800
fr	-1801
▁vệ	-1802
▁Col	-1803
▁here	-1804
▁bày	-1805
▁purpose	-1806
ưỡ	-1807
site	-1808
▁Bo	-1809
▁...	-1810
▁hot	-1811
▁emotion	-1812
▁mention	-1813
aining	-1814
▁ent	-1815
▁duy	-1816
ams	-1817
▁phía	-1818
ave	-1819
▁gu	-1820
▁event	-1821
▁tiện	-1822
▁med	-1823
▁nhu	-1824
ute	-1825
▁week	-1826
▁requ	-1827
ptions	-1828
▁vari	-1829
▁tuyến	-1830
▁comple	-1831
▁Sc	-1832
▁sạn	-1833
ever	-1834
▁40	-1835
▁suggests	-1836
▁now	-1837
▁nhấn	-1838
▁xử	-1839
▁khỏ	-1840
▁phil	-1841
to	-1842
▁tuần	-1843
▁nay	-1844
▁xung	-1845
▁based	-1846
▁thi	-1847
▁descri	-1848
▁phê	-1849
▁poss	-1850
▁khỏe	-1851
▁hu	-1852
▁mẫu	-1853
man	-1854
osoph	-1855
oup	-1856
▁cận	-1857
ince	-1858
▁thử	-1859
▁mem	-1860
▁eval	-1861
▁word	-1862
▁17	-1863
▁bổ	-1864
--------	-1865
▁thinking	-1866
▁free	-1867
▁develop	-1868
▁video	-1869
▁game	-1870
▁provided	-1871
▁Is	-1872
▁tù	-1873
▁list	-1874
▁child	-1875
▁,	-1876
ngth	-1877
ividual	-1878
ax	-1879
▁philosoph	-1880
llm	-1881
▁Pl	-1882
▁Giá	-1883
▁enc	-1884
▁ideas	-1885
▁chí	-1886
▁môi	-1887
▁thư	-1888
▁after	-1889
▁Nam	-1890
▁tải	-1891
itive	-1892
▁Co	-1893
▁sour	-1894
▁gợi	-1895
ied	-1896
rec	-1897
▁All	-1898
▁Car	-1899
▁want	-1900
ized	-1901
ocus	-1902
▁mở	-1903
▁giữ	-1904
ows	-1905
▁đấu	-1906
br	-1907
▁chắn	-1908
▁khám	-1909
▁cr	-1910
▁exam	-1911
▁thú	-1912
▁đa	-1913
▁Trung	-1914
▁eas	-1915
ether	-1916
▁philosophy	-1917
▁bóng	-1918
▁tiến	-1919
▁worldview	-1920
",	-1921
▁chứa	-1922
utes	-1923
▁tới	-1924
▁John	-1925
▁individual	-1926
▁nhật	-1927
▁coi	-1928
▁iss	-1929
ina	-1930
co	-1931
nect	-1932
▁emphasiz	-1933
▁pol	-1934
ats	-1935
▁60	-1936
▁từng	-1937
▁ít	-1938
lying	-1939
ann	-1940
▁logic	-1941
▁providing	-1942
▁Ro	-1943
▁call	-1944
att	-1945
▁Tuy	-1946
▁conflic	-1947
ier	-1948
▁du	-1949
▁seriously	-1950
▁Không	-1951
ield	-1952
rib	-1953
▁khai	-1954
▁services	-1955
ĩnh	-1956
▁chuẩn	-1957
fa	-1958
alk	-1959
erv	-1960
▁Sau	-1961
▁appro	-1962
ases	-1963
▁lớp	-1964
▁syst	-1965
▁đẹp	-1966
ott	-1967
ren	-1968
orts	-1969
▁prof	-1970
àu	-1971
▁moral	-1972
▁focus	-1973
▁organ	-1974
▁>	-1975
▁readers	-1976
▁stre	-1977
ưỡng	-1978
ides	-1979
▁hòa	-1980
▁nghị	-1981
▁vẻ	-1982
phap	-1983
luat	-1984
arg	-1985
▁hand	-1986
▁Over	-1987
11	-1988
enn	-1989
eep	-1990
▁tre	-1991
▁hồi	-1992
▁phủ	-1993
▁đội	-1994
▁ưu	-1995
▁care	-1996
▁highlights	-1997
▁thảo	-1998
▁phot	-1999
▁means	-2000
▁hiểm	-2001
</	-2002
▁biển	-2003
▁ref	-2004
▁seen	-2005
read	-2006
▁khoa	-2007
▁im	-2008
ửi	-2009
▁tinh	-2010
atur	-2011
▁phút	-2012
▁team	-2013
▁gl	-2014
▁vận	-2015
ability	-2016
▁understanding	-2017
▁very	-2018
▁ghi	-2019
▁del	-2020
▁personal	-2021
▁process	-2022
▁Or	-2023
▁nền	-2024
alleng	-2025
aut	-2026
ify	-2027
éo	-2028
áu	-2029
▁making	-2030
ateg	-2031
24	-2032
iles	-2033
▁website	-2034
▁ed	-2035
▁Te	-2036
▁fun	-2037
▁Lu	-2038
▁lear	-2039
▁Bằng	-2040
▁perform	-2041
ior	-2042
▁create	-2043
▁better	-2044
ặng	-2045
▁including	-2046
▁techn	-2047
▁lã	-2048
60	-2049
▁Ngày	-2050
▁Ngh	-2051
usic	-2052
ession	-2053
▁tiềm	-2054
▁hoạch	-2055
▁Su	-2056
15	-2057
▁thoại	-2058
80	-2059
▁pub	-2060
acy	-2061
▁cấu	-2062
NG	-2063
▁indic	-2064
99	-2065
▁Des	-2066
▁don	-2067
▁chị	-2068
▁ngay	-2069
yz	-2070
▁So	-2071
▁Cu	-2072
úi	-2073
▁đô	-2074
▁products	-2075
▁statement	-2076
▁mất	-2077
ines	-2078
▁Quốc	-2079
inc	-2080
▁chắc	-2081
ature	-2082
▁fri	-2083
▁phong	-2084
▁cạnh	-2085
▁trans	-2086
▁viện	-2087
put	-2088
▁dist	-2089
lection	-2090
▁clear	-2091
▁thúc	-2092
tr	-2093
itch	-2094
▁why	-2095
▁area	-2096
▁unique	-2097
▁encour	-2098
ains	-2099
▁post	-2100
▁perspective	-2101
▁nữ	-2102
▁beh	-2103
▁Theo	-2104
▁khuyến	-2105
▁bay	-2106
▁hàm	-2107
ten	-2108
▁data	-2109
▁ủ	-2110
ists	-2111
1,	-2112
▁nhanh	-2113
▁tùy	-2114
▁service	-2115
bers	-2116
▁chiều	-2117
▁class	-2118
▁students	-2119
▁mùa	-2120
ology	-2121
nown	-2122
▁suggest	-2123
app	-2124
▁Fe	-2125
▁needs	-2126
▁xảy	-2127
▁partic	-2128
▁gener	-2129
▁hours	-2130
port	-2131
▁start	-2132
▁health	-2133
▁ô	-2134
▁sung	-2135
▁nam	-2136
▁challeng	-2137
▁dù	-2138
ency	-2139
▁uses	-2140
ital	-2141
▁hoa	-2142
▁mạng	-2143
▁Ind	-2144
▁Gre	-2145
▁water	-2146
▁gặp	-2147
▁ob	-2148
▁ngành	-2149
▁market	-2150
acks	-2151
▁They	-2152
ike	-2153
▁minutes	-2154
lies	-2155
▁chẳng	-2156
▁pie	-2157
ysis	-2158
âng	-2159
▁place	-2160
▁assumption	-2161
ense	-2162
kh	-2163
▁thiếu	-2164
▁vai	-2165
▁decis	-2166
oại	-2167
//	-2168
▁Man	-2169
▁access	-2170
▁suất	-2171
ãn	-2172
▁situation	-2173
▁last	-2174
▁sâu	-2175
▁bre	-2176
ructure	-2177
other	-2178
▁xếp	-2179
ibility	-2180
▁even	-2181
▁chú	-2182
duc	-2183
chie	-2184
▁chữ	-2185
ients	-2186
▁thuyết	-2187
▁cam	-2188
ores	-2189
yle	-2190
ternet	-2191
▁trạng	-2192
▁given	-2193
ium	-2194
views	-2195
arr	-2196
room	-2197
▁trưởng	-2198
▁whether	-2199
▁nghỉ	-2200
▁gửi	-2201
▁email	-2202
▁thật	-2203
▁`	-2204
▁before	-2205
▁quanh	-2206
▁mẹ	-2207
▁Am	-2208
▁Can	-2209
▁due	-2210
ộn	-2211
▁vọng	-2212
▁pop	-2213
clusion	-2214
▁No	-2215
ua	-2216
ush	-2217
▁Res	-2218
▁nối	-2219
ric	-2220
oot	-2221
ories	-2222
reci	-2223
▁found	-2224
▁sửa	-2225
vir	-2226
▁km	-2227
ote	-2228
▁project	-2229
comm	-2230
▁However	-2231
▁ai	-2232
25	-2233
▁analyz	-2234
▁interest	-2235
40	-2236
▁Số	-2237
ral	-2238
▁đêm	-2239
ley	-2240
▁giấy	-2241
▁thần	-2242
▁further	-2243
▁nghiêm	-2244
00.	-2245
▁Khi	-2246
▁Tổng	-2247
▁able	-2248
▁luôn	-2249
▁proper	-2250
▁ext	-2251
▁hết	-2252
▁**	-2253
____	-2254
▁features	-2255
▁right	-2256
▁ràng	-2257
19	-2258
▁term	-2259
13	-2260
▁trúc	-2261
▁benefits	-2262
▁days	-2263
▁trách	-2264
sh	-2265
▁Go	-2266
itional	-2267
▁khỏi	-2268
▁bước	-2269
▁those	-2270
▁progr	-2271
▁kích	-2272
▁ret	-2273
aterial	-2274
▁niệm	-2275
▁ơn	-2276
▁thuế	-2277
▁case	-2278
▁incre	-2279
book	-2280
ample	-2281
▁Number	-2282
eal	-2283
▁much	-2284
▁following	-2285
ER	-2286
▁count	-2287
▁lao	-2288
viron	-2289
▁rece	-2290
▁connect	-2291
▁achie	-2292
▁hy	-2293
▁ident	-2294
▁góp	-2295
▁thẩm	-2296
ND	-2297
▁nhiệt	-2298
▁kỷ	-2299
▁family	-2300
▁direct	-2301
▁vùng	-2302
▁hát	-2303
▁evaluation	-2304
▁áo	-2305
,.	-2306
▁trì	-2307
▁rest	-2308
▁cent	-2309
▁đôi	-2310
faq	-2311
ought	-2312
orth	-2313
▁eng	-2314
▁love	-2315
ecess	-2316
14	-2317
▁dep	-2318
ane	-2319
▁presented	-2320
▁run	-2321
ograph	-2322
18	-2323
▁da	-2324
▁three	-2325
▁experi	-2326
!!	-2327
õi	-2328
joy	-2329
▁determ	-2330
ird	-2331
▁conflicts	-2332
ien	-2333
▁second	-2334
▁nằm	-2335
▁trái	-2336
▁khích	-2337
▁sal	-2338
▁analysis	-2339
▁pat	-2340
▁Fl	-2341
▁Họ	-2342
ica	-2343
▁impro	-2344
▁bi	-2345
16	-2346
▁offers	-2347
▁try	-2348
].	-2349
▁Fin	-2350
▁did	-2351
▁Cont	-2352
▁hấp	-2353
▁again	-2354
▁discuss	-2355
ples	-2356
▁valid	-2357
▁Overall	-2358
ferences	-2359
▁dri	-2360
▁details	-2361
▁Sự	-2362
▁lâu	-2363
lick	-2364
▁đông	-2365
ậm	-2366
ín	-2367
▁system	-2368
by	-2369
▁Me	-2370
▁open	-2371
work	-2372
▁fil	-2373
▁writ	-2374
The	-2375
▁around	-2376
▁xanh	-2377
▁xuống	-2378
▁nhằm	-2379
ending	-2380
vers	-2381
▁chấp	-2382
ism	-2383
ipp	-2384
▁phổ	-2385
▁conc	-2386
▁mắt	-2387
▁thước	-2388
▁sẻ	-2389
ired	-2390
▁old	-2391
▁6.	-2392
ization	-2393
▁resp	-2394
▁school	-2395
▁En	-2396
▁month	-2397
ẩy	-2398
▁during	-2399
▁chăm	-2400
ted	-2401
▁Kỳ	-2402
▁trời	-2403
▁App	-2404
▁sang	-2405
▁hạt	-2406
://	-2407
▁dòng	-2408
▁giống	-2409
▁sur	-2410
▁recomm	-2411
▁£	-2412
▁possible	-2413
▁appear	-2414
▁thuốc	-2415
▁kê	-2416
▁Cent	-2417
▁Đại	-2418
vironment	-2419
▁cân	-2420
▁đáp	-2421
▁build	-2422
▁questions	-2423
ches	-2424
▁sóc	-2425
load	-2426
▁22	-2427
▁chống	-2428
▁Let	-2429
▁1,	-2430
vent	-2431
▁USD	-2432
▁room	-2433
fect	-2434
70	-2435
ling	-2436
▁times	-2437
▁Mỹ	-2438
ron	-2439
▁special	-2440
▁necess	-2441
ertain	-2442
pes	-2443
▁location	-2444
▁signific	-2445
▁nêu	-2446
▁bật	-2447
▁lấy	-2448
ills	-2449
gn	-2450
▁lúc	-2451
▁đức	-2452
▁Therefore	-2453
▁bàn	-2454
thers	-2455
cept	-2456
▁thưởng	-2457
erg	-2458
▁community	-2459
ôm	-2460
ỉnh	-2461
ator	-2462
▁Cảm	-2463
▁said	-2464
▁point	-2465
▁Hoa	-2466
▁customers	-2467
▁buổi	-2468
▁pract	-2469
▁ẩn	-2470
▁giản	-2471
bum	-2472
▁She	-2473
èm	-2474
Th	-2475
▁visit	-2476
▁hạng	-2477
▁đột	-2478
▁mật	-2479
iple	-2480
23	-2481
▁rút	-2482
▁without	-2483
▁dàng	-2484
ttps	-2485
▁Việc	-2486
▁trận	-2487
▁chịu	-2488
▁claims	-2489
▁Ab	-2490
▁charact	-2491
▁looking	-2492
ically	-2493
▁indust	-2494
▁khóa	-2495
▁positive	-2496
▁conclusion	-2497
ỏng	-2498
aj	-2499
▁cà	-2500
▁implies	-2501
ference	-2502
▁prot	-2503
▁lĩnh	-2504
▁mentions	-2505
4)	-2506
outh	-2507
▁gắng	-2508
▁ngôn	-2509
▁bức	-2510
▁thách	-2511
▁May	-2512
▁Thứ	-2513
otel	-2514
▁Amer	-2515
arge	-2516
yl	-2517
▁end	-2518
▁lạc	-2519
▁critique	-2520
▁str	-2521
▁express	-2522
▁chuyến	-2523
17	-2524
▁With	-2525
▁exc	-2526
ining	-2527
-0	-2528
ands	-2529
ple	-2530
▁quân	-2531
▁draws	-2532
ways	-2533
oo	-2534
aur	-2535
▁My	-2536
pres	-2537
▁Bar	-2538
▁tây	-2539
▁children	-2540
ody	-2541
▁supp	-2542
▁thơ	-2543
▁activ	-2544
▁mã	-2545
90	-2546
uck	-2547
▁Hơn	-2548
▁solve	-2549
▁dấu	-2550
▁cor	-2551
▁thuận	-2552
▁ens	-2553
ites	-2554
▁pri	-2555
▁power	-2556
aging	-2557
▁bro	-2558
▁him	-2559
▁tức	-2560
▁thiệu	-2561
▁vô	-2562
▁thắng	-2563
▁gói	-2564
▁mong	-2565
▁dưỡng	-2566
▁online	-2567
▁Ste	-2568
▁28	-2569
▁various	-2570
▁nhớ	-2571
rist	-2572
▁small	-2573
ềm	-2574
urs	-2575
▁cost	-2576
af	-2577
iversity	-2578
ney	-2579
▁nguy	-2580
▁Ed	-2581
▁example	-2582
ots	-2583
ỏa	-2584
▁might	-2585
vern	-2586
▁food	-2587
cd	-2588
▁environment	-2589
:00	-2590
ister	-2591
▁huống	-2592
▁forese	-2593
▁addressing	-2594
▁foresees	-2595
▁đá	-2596
ident	-2597
▁Cal	-2598
▁chân	-2599
▁music	-2600
▁23	-2601
▁full	-2602
);	-2603
▁Mục	-2604
ward	-2605
▁material	-2606
esh	-2607
less	-2608
ẩu	-2609
▁Nhìn	-2610
▁Cho	-2611
iving	-2612
▁đáo	-2613
▁met	-2614
▁contact	-2615
▁sources	-2616
▁ele	-2617
▁tô	-2618
▁mult	-2619
let	-2620
▁Bản	-2621
▁mềm	-2622
▁căn	-2623
▁red	-2624
▁dõi	-2625
▁càng	-2626
▁still	-2627
▁cuốn	-2628
ford	-2629
▁happ	-2630
vn	-2631
63	-2632
▁behind	-2633
fort	-2634
▁vers	-2635
ittle	-2636
▁type	-2637
▁cư	-2638
▁enjoy	-2639
▁size	-2640
▁vừa	-2641
▁Hội	-2642
▁hút	-2643
.'	-2644
▁saf	-2645
▁makes	-2646
iver	-2647
▁def	-2648
▁range	-2649
iday	-2650
▁nghề	-2651
▁nâng	-2652
▁vòng	-2653
▁beaut	-2654
▁lim	-2655
▁Dr	-2656
▁pass	-2657
▁27	-2658
▁Cô	-2659
▁same	-2660
▁môn	-2661
▁21	-2662
▁biện	-2663
▁hương	-2664
▁dr	-2665
ada	-2666
▁</	-2667
▁ánh	-2668
▁examples	-2669
▁page	-2670
▁appreci	-2671
ledge	-2672
▁thái	-2673
▁buy	-2674
ips	-2675
▁mar	-2676
▁Our	-2677
▁too	-2678
▁tỷ	-2679
========	-2680
clusions	-2681
ffic	-2682
ican	-2683
▁chạy	-2684
▁kèm	-2685
▁keep	-2686
ille	-2687
▁Việt	-2688
▁sai	-2689
par	-2690
▁ear	-2691
son	-2692
▁nghe	-2693
▁meet	-2694
▁job	-2695
▁nhắc	-2696
5,	-2697
▁quảng	-2698
▁khăn	-2699
▁win	-2700
ogn	-2701
▁el	-2702
▁2,	-2703
ony	-2704
▁underlying	-2705
wh	-2706
fact	-2707
▁seems	-2708
▁hist	-2709
ction	-2710
TT	-2711
▁Med	-2712
▁est	-2713
▁Bro	-2714
ask	-2715
ump	-2716
▁0,	-2717
ared	-2718
▁blog	-2719
▁sắp	-2720
gin	-2721
orm	-2722
▁result	-2723
▁easy	-2724
▁bảng	-2725
▁mặc	-2726
aster	-2727
▁Rec	-2728
▁program	-2729
ili	-2730
▁tạp	-2731
▁supported	-2732
▁sân	-2733
▁ngôi	-2734
▁80	-2735
21	-2736
▁structure	-2737
▁đời	-2738
▁sides	-2739
▁light	-2740
▁triệu	-2741
▁0.	-2742
▁level	-2743
part	-2744
▁Please	-2745
▁bối	-2746
▁tồn	-2747
▁Chủ	-2748
▁past	-2749
▁lễ	-2750
▁left	-2751
ộp	-2752
▁cal	-2753
Ch	-2754
▁vài	-2755
thu	-2756
ember	-2757
▁thấp	-2758
▁profession	-2759
oring	-2760
▁bang	-2761
▁Đáp	-2762
▁feet	-2763
uture	-2764
ocial	-2765
▁York	-2766
▁Gu	-2767
▁plan	-2768
▁come	-2769
▁say	-2770
▁uống	-2771
▁khẳng	-2772
▁dem	-2773
lex	-2774
ury	-2775
▁ann	-2776
▁cook	-2777
ended	-2778
AT	-2779
▁repres	-2780
▁grow	-2781
▁mại	-2782
▁real	-2783
ulation	-2784
▁strength	-2785
▁approach	-2786
▁today	-2787
▁Eng	-2788
ified	-2789
▁weak	-2790
▁Comm	-2791
▁prom	-2792
way	-2793
▁đàn	-2794
▁air	-2795
pportun	-2796
▁Sy	-2797
▁tuy	-2798
▁includes	-2799
▁cour	-2800
▁invest	-2801
eed	-2802
▁stand	-2803
ele	-2804
▁dây	-2805
▁vượt	-2806
▁taking	-2807
▁must	-2808
▁đoán	-2809
▁Tw	-2810
▁trad	-2811
▁sum	-2812
inal	-2813
▁few	-2814
▁album	-2815
urg	-2816
▁26	-2817
▁rele	-2818
icult	-2819
rol	-2820
▁cond	-2821
▁trừ	-2822
▁tốc	-2823
▁Pol	-2824
ults	-2825
▁mov	-2826
ually	-2827
▁challenges	-2828
▁dầu	-2829
28	-2830
vert	-2831
▁tắt	-2832
▁cắt	-2833
▁Như	-2834
▁khẩu	-2835
erc	-2836
AR	-2837
▁đảo	-2838
▁inf	-2839
▁purch	-2840
▁something	-2841
ape	-2842
known	-2843
agement	-2844
▁overall	-2845
▁Phần	-2846
▁tắc	-2847
▁decision	-2848
ination	-2849
▁thuê	-2850
▁issue	-2851
pro	-2852
ON	-2853
ware	-2854
mber	-2855
▁leg	-2856
▁contin	-2857
▁Post	-2858
sp	-2859
▁pain	-2860
▁tận	-2861
▁next	-2862
▁sl	-2863
▁having	-2864
▁More	-2865
ries	-2866
▁public	-2867
une	-2868
oint	-2869
eter	-2870
▁lang	-2871
▁đào	-2872
▁z	-2873
▁El	-2874
▁hear	-2875
▁tôn	-2876
2,	-2877
eg	-2878
itions	-2879
▁others	-2880
▁xuyên	-2881
▁199	-2882
por	-2883
▁tiểu	-2884
omen	-2885
▁lai	-2886
▁events	-2887
err	-2888
▁invol	-2889
èn	-2890
▁kéo	-2891
ounds	-2892
alf	-2893
▁altern	-2894
/2022	-2895
ES	-2896
▁local	-2897
ively	-2898
conom	-2899
▁opportun	-2900
▁mái	-2901
▁price	-2902
▁action	-2903
▁Bài	-2904
▁Da	-2905
▁experiences	-2906
▁tín	-2907
▁emphasizes	-2908
ana	-2909
▁thất	-2910
▁At	-2911
ead	-2912
cm	-2913
▁include	-2914
9,	-2915
▁hại	-2916
ored	-2917
▁ign	-2918
▁Wor	-2919
▁Are	-2920
▁reasons	-2921
▁https	-2922
ót	-2923
▁rồi	-2924
aper	-2925
▁story	-2926
▁nướng	-2927
come	-2928
▁che	-2929
▁fac	-2930
▁lương	-2931
▁hộp	-2932
▁lack	-2933
▁please	-2934
▁phạt	-2935
▁luyện	-2936
▁aud	-2937
▁name	-2938
box	-2939
▁ngắn	-2940
▁Internet	-2941
▁chang	-2942
▁—	-2943
="	-2944
▁comb	-2945
▁determine	-2946
▁equation	-2947
▁1/	-2948
▁industry	-2949
▁fail	-2950
ball	-2951
ino	-2952
▁@	-2953
▁nu	-2954
ived	-2955
▁performance	-2956
icial	-2957
▁gốc	-2958
▁đẩy	-2959
▁niềm	-2960
▁impact	-2961
75	-2962
▁future	-2963
▁sư	-2964
▁compet	-2965
oor	-2966
ye	-2967
▁song	-2968
65	-2969
▁cap	-2970
▁site	-2971
▁Dis	-2972
▁Jan	-2973
atter	-2974
uyền	-2975
▁Lý	-2976
output	-2977
▁7.	-2978
pg	-2979
▁Trường	-2980
ett	-2981
▁description	-2982
▁Gl	-2983
▁bữa	-2984
▁giám	-2985
▁learn	-2986
phapluat	-2987
▁Luật	-2988
aken	-2989
ho	-2990
▁always	-2991
▁near	-2992
▁miss	-2993
ượu	-2994
▁Serv	-2995
▁presents	-2996
▁hum	-2997
ọt	-2998
▁contrib	-2999
▁lỗi	-3000
▁Par	-3001
-3	-3002
▁house	-3003
ids	-3004
▁Art	-3005
▁fla	-3006
▁Ban	-3007
▁const	-3008
▁dou	-3009
▁Mark	-3010
▁đoàn	-3011
▁nhẹ	-3012
ke	-3013
ffect	-3014
▁trav	-3015
▁season	-3016
45	-3017
▁ris	-3018
▁Sm	-3019
▁variety	-3020
▁effective	-3021
▁pay	-3022
▁họa	-3023
not	-3024
▁Count	-3025
▁below	-3026
▁Ge	-3027
.,	-3028
▁since	-3029
▁less	-3030
▁tệ	-3031
/0	-3032
▁soát	-3033
▁cậy	-3034
edd	-3035
▁tàu	-3036
▁túc	-3037
▁Pre	-3038
▁Mon	-3039
▁opin	-3040
res	-3041
▁TH	-3042
▁content	-3043
▁conve	-3044
▁bác	-3045
▁inferences	-3046
ently	-3047
▁working	-3048
▁diff	-3049
▁tái	-3050
ancial	-3051
▁check	-3052
?"	-3053
iful	-3054
▁lãnh	-3055
ones	-3056
▁cred	-3057
▁bar	-3058
ced	-3059
unch	-3060
ml	-3061
ately	-3062
▁Với	-3063
▁head	-3064
▁Mich	-3065
▁resol	-3066
▁sing	-3067
▁thao	-3068
4,	-3069
▁assumptions	-3070
▁cử	-3071
▁bầu	-3072
▁..	-3073
▁sàng	-3074
▁But	-3075
jpg	-3076
▁lược	-3077
▁quần	-3078
▁large	-3079
▁đen	-3080
▁ngân	-3081
▁City	-3082
▁Hai	-3083
▁2017	-3084
▁đốc	-3085
▁Được	-3086
▁Đo	-3087
▁xa	-3088
▁neg	-3089
▁upd	-3090
▁Your	-3091
▁tội	-3092
▁works	-3093
▁fall	-3094
utions	-3095
▁kính	-3096
▁3)	-3097
▁bền	-3098
▁research	-3099
OR	-3100
▁hard	-3101
▁Di	-3102
▁pack	-3103
▁Park	-3104
vien	-3105
tain	-3106
▁lái	-3107
▁ủng	-3108
▁types	-3109
▁buộc	-3110
▁four	-3111
▁Ass	-3112
▁hài	-3113
▁Nghị	-3114
me	-3115
▁assumes	-3116
AN	-3117
▁oper	-3118
▁ste	-3119
▁Will	-3120
atural	-3121
▁rượu	-3122
▁Min	-3123
oon	-3124
▁ngoại	-3125
▁Liên	-3126
▁give	-3127
▁members	-3128
pm	-3129
▁vàng	-3130
▁break	-3131
▁men	-3132
era	-3133
▁ensure	-3134
▁money	-3135
za	-3136
▁sw	-3137
▁tool	-3138
ặn	-3139
▁ngủ	-3140
istr	-3141
▁mess	-3142
ặm	-3143
Wh	-3144
ara	-3145
▁miles	-3146
▁items	-3147
▁change	-3148
▁hotel	-3149
▁quay	-3150
▁context	-3151
▁sever	-3152
conclusions	-3153
ection	-3154
▁cult	-3155
▁Thành	-3156
▁Â	-3157
uce	-3158
ama	-3159
▁Read	-3160
▁Em	-3161
▁phiên	-3162
▁super	-3163
acebook	-3164
▁***	-3165
▁attem	-3166
umb	-3167
▁kiểu	-3168
▁ngụ	-3169
▁Tây	-3170
ances	-3171
cách	-3172
▁High	-3173
▁relations	-3174
▁words	-3175
aff	-3176
▁cover	-3177
iting	-3178
▁alternative	-3179
uro	-3180
org	-3181
▁Mc	-3182
▁nhi	-3183
▁chết	-3184
ined	-3185
cdn	-3186
aces	-3187
▁box	-3188
▁trữ	-3189
▁appeal	-3190
▁fav	-3191
▁perspectives	-3192
▁particular	-3193
ensive	-3194
▁little	-3195
▁Bu	-3196
▁nóng	-3197
▁unknown	-3198
3,	-3199
ering	-3200
^2	-3201
osed	-3202
▁city	-3203
▁thiên	-3204
▁lot	-3205
nes	-3206
▁respect	-3207
vernment	-3208
▁tảng	-3209
▁khuyên	-3210
▁going	-3211
ville	-3212
ED	-3213
▁difficult	-3214
><	-3215
▁{	-3216
▁mean	-3217
vienphapluat	-3218
▁trích	-3219
thuvienphapluat	-3220
coming	-3221
ky	-3222
▁customer	-3223
▁popular	-3224
▁Dưới	-3225
ogle	-3226
cle	-3227
▁Cr	-3228
▁loài	-3229
▁users	-3230
uage	-3231
▁điển	-3232
IN	-3233
▁ngăn	-3234
▁nấu	-3235
gether	-3236
▁strong	-3237
ox	-3238
▁really	-3239
▁One	-3240
▁econom	-3241
▁khắc	-3242
▁friends	-3243
▁bed	-3244
%3	-3245
▁together	-3246
play	-3247
▁thẻ	-3248
▁suốt	-3249
irm	-3250
ington	-3251
▁factors	-3252
cription	-3253
itter	-3254
▁90	-3255
▁Comp	-3256
▁nộp	-3257
min	-3258
▁improve	-3259
▁account	-3260
▁yet	-3261
▁dặm	-3262
▁lá	-3263
erson	-3264
▁Tìm	-3265
ườn	-3266
ầng	-3267
ention	-3268
▁recogn	-3269
▁đãi	-3270
▁2018	-3271
6,	-3272
asing	-3273
▁chỗ	-3274
▁Cuối	-3275
▁Từ	-3276
▁San	-3277
▁another	-3278
▁Lo	-3279
▁sure	-3280
AS	-3281
yn	-3282
▁đâu	-3283
▁occ	-3284
▁development	-3285
▁soft	-3286
▁taken	-3287
▁thừa	-3288
▁Đị	-3289
▁field	-3290
▁share	-3291
----------------	-3292
▁Inst	-3293
ilities	-3294
de	-3295
,"	-3296
▁gái	-3297
▁certain	-3298
▁tem	-3299
▁Năm	-3300
▁Đối	-3301
▁Kho	-3302
▁perfect	-3303
▁put	-3304
▁character	-3305
▁University	-3306
▁report	-3307
▁vũ	-3308
}{	-3309
▁Per	-3310
▁amount	-3311
▁comfort	-3312
▁hôm	-3313
▁gắn	-3314
▁emphasizing	-3315
iếng	-3316
▁sense	-3317
▁nuôi	-3318
inks	-3319
▁đỏ	-3320
33	-3321
▁Christ	-3322
▁bào	-3323
▁knowledge	-3324
raft	-3325
▁state	-3326
▁phiếu	-3327
ém	-3328
augh	-3329
nesses	-3330
▁»	-3331
▁phối	-3332
100	-3333
frac	-3334
▁away	-3335
lished	-3336
▁(4)	-3337
▁Pe	-3338
▁film	-3339
▁Reg	-3340
▁[...	-3341
▁within	-3342
▁chó	-3343
▁let	-3344
thod	-3345
▁property	-3346
▁search	-3347
ươi	-3348
▁necessary	-3349
▁trắng	-3350
▁10.	-3351
▁thẳng	-3352
ison	-3353
▁social	-3354
▁35	-3355
▁style	-3356
▁role	-3357
▁Sal	-3358
▁pict	-3359
▁group	-3360
0,	-3361
▁Á	-3362
▁Product	-3363
▁01	-3364
▁Cơ	-3365
over	-3366
▁chữa	-3367
uly	-3368
▁dev	-3369
▁relationship	-3370
▁Giải	-3371
▁test	-3372
▁variable	-3373
▁45	-3374
)..	-3375
▁36	-3376
▁things	-3377
▁link	-3378
▁reli	-3379
▁Har	-3380
▁chiếu	-3381
ternational	-3382
ibr	-3383
▁2020	-3384
oud	-3385
wood	-3386
▁gấp	-3387
▁CH	-3388
▁8.	-3389
▁travel	-3390
▁side	-3391
king	-3392
rop	-3393
irt	-3394
▁considered	-3395
▁Pub	-3396
▁related	-3397
eness	-3398
▁3,	-3399
▁hiển	-3400
▁subject	-3401
ilar	-3402
▁appears	-3403
▁From	-3404
ls	-3405
▁View	-3406
▁Độ	-3407
▁big	-3408
▁mì	-3409
ret	-3410
▁financial	-3411
▁West	-3412
▁School	-3413
▁hold	-3414
▁phức	-3415
▁Căn	-3416
▁orig	-3417
▁ill	-3418
▁Đoạn	-3419
▁successful	-3420
▁elect	-3421
▁aspect	-3422
▁xin	-3423
na	-3424
ID	-3425
▁tuyển	-3426
▁sent	-3427
▁dog	-3428
▁sell	-3429
▁khảo	-3430
rite	-3431
ht	-3432
ured	-3433
▁kim	-3434
▁collect	-3435
29	-3436
uments	-3437
):	-3438
lication	-3439
▁vốn	-3440
▁general	-3441
77	-3442
▁conclud	-3443
ope	-3444
▁Chính	-3445
opp	-3446
▁critical	-3447
idd	-3448
▁nhiễ	-3449
ords	-3450
▁color	-3451
▁allow	-3452
ald	-3453
my	-3454
bert	-3455
▁VND	-3456
88	-3457
▁news	-3458
▁Oct	-3459
▁designed	-3460
▁lạnh	-3461
CP	-3462
back	-3463
▁tầng	-3464
▁lẽ	-3465
▁North	-3466
▁clean	-3467
ecial	-3468
side	-3469
▁trụ	-3470
▁stay	-3471
▁thập	-3472
IS	-3473
▁respons	-3474
icy	-3475
***	-3476
▁emplo	-3477
▁educ	-3478
▁inch	-3479
ociety	-3480
▁ổ	-3481
▁Inc	-3482
▁Cor	-3483
▁terms	-3484
▁--	-3485
▁expect	-3486
oes	-3487
ipe	-3488
▁bột	-3489
ges	-3490
▁thịt	-3491
▁Sim	-3492
▁ess	-3493
▁Finally	-3494
oe	-3495
5)	-3496
sel	-3497
▁Kết	-3498
▁age	-3499
▁Black	-3500
▁associ	-3501
anks	-3502
ural	-3503
▁thăm	-3504
▁Apr	-3505
▁Trang	-3506
▁space	-3507
▁sch	-3508
iếp	-3509
▁Air	-3510
ịp	-3511
▁options	-3512
▁professional	-3513
▁Ví	-3514
▁technology	-3515
urity	-3516
▁La	-3517
▁News	-3518
èo	-3519
ĩa	-3520
▁true	-3521
yr	-3522
▁self	-3523
ags	-3524
▁Not	-3525
irect	-3526
▁tòa	-3527
ental	-3528
▁non	-3529
aring	-3530
▁Ý	-3531
otal	-3532
Ph	-3533
▁user	-3534
▁short	-3535
▁Up	-3536
ication	-3537
▁tránh	-3538
▁bas	-3539
▁World	-3540
▁phys	-3541
▁South	-3542
▁become	-3543
▁Sw	-3544
▁Stre	-3545
▁review	-3546
▁Don	-3547
eh	-3548
▁Web	-3549
▁Char	-3550
▁Day	-3551
atest	-3552
▁Stud	-3553
▁night	-3554
ủy	-3555
▁trưng	-3556
▁nỗ	-3557
▁bé	-3558
▁half	-3559
▁khối	-3560
▁anim	-3561
▁tỉnh	-3562
▁hứng	-3563
rew	-3564
▁consum	-3565
ref	-3566
▁đậu	-3567
-2/	-3568
yth	-3569
▁beautiful	-3570
ustr	-3571
▁choice	-3572
▁trying	-3573
▁trai	-3574
▁resour	-3575
imes	-3576
ilt	-3577
▁law	-3578
▁nông	-3579
cent	-3580
▁kiệm	-3581
▁mắc	-3582
▁Phot	-3583
▁pieces	-3584
/2022-2/	-3585
▁dường	-3586
▁got	-3587
▁watch	-3588
ler	-3589
▁currently	-3590
abor	-3591
▁tịch	-3592
▁topic	-3593
▁accur	-3594
▁language	-3595
▁brand	-3596
▁against	-3597
elebr	-3598
▁Sub	-3599
▁linh	-3600
▁vững	-3601
osts	-3602
ham	-3603
▁viewp	-3604
▁hơi	-3605
wards	-3606
-20	-3607
▁values	-3608
aul	-3609
▁Free	-3610
▁Ô	-3611
▁history	-3612
ops	-3613
▁màn	-3614
▁ấn	-3615
▁white	-3616
▁phr	-3617
▁mạch	-3618
▁Aug	-3619
ondon	-3620
▁government	-3621
bon	-3622
▁piece	-3623
AC	-3624
▁additional	-3625
▁lục	-3626
▁tai	-3627
▁Ba	-3628
▁image	-3629
▁es	-3630
▁nặng	-3631
▁significant	-3632
▁treat	-3633
▁nhiễm	-3634
▁enough	-3635
▁2013	-3636
▁mai	-3637
▁II	-3638
▁thoải	-3639
▁Home	-3640
▁finish	-3641
▁join	-3642
▁above	-3643
AL	-3644
44	-3645
▁Đó	-3646
▁mẽ	-3647
ụp	-3648
▁Ang	-3649
?”	-3650
gi	-3651
▁cha	-3652
▁70	-3653
ico	-3654
▁games	-3655
▁hảo	-3656
ording	-3657
ev	-3658
▁Facebook	-3659
verage	-3660
▁activities	-3661
▁Và	-3662
▁Off	-3663
▁Bảo	-3664
▁reach	-3665
▁Ser	-3666
qr	-3667
▁gen	-3668
▁require	-3669
▁takes	-3670
▁quận	-3671
▁thủy	-3672
idge	-3673
▁cand	-3674
▁country	-3675
▁individuals	-3676
▁Here	-3677
ners	-3678
faqt	-3679
▁Hy	-3680
▁chóng	-3681
▁đau	-3682
▁chào	-3683
▁Del	-3684
▁ngon	-3685
ission	-3686
▁learning	-3687
ads	-3688
▁American	-3689
▁phán	-3690
▁khái	-3691
▁túi	-3692
▁negative	-3693
▁dương	-3694
▁Thời	-3695
,”	-3696
▁prev	-3697
▁black	-3698
▁Sol	-3699
▁Aust	-3700
▁29	-3701
▁nature	-3702
▁fit	-3703
▁Part	-3704
▁done	-3705
▁friend	-3706
▁issues	-3707
▁120	-3708
▁favor	-3709
▁United	-3710
▁parts	-3711
onc	-3712
EN	-3713
▁flo	-3714
▁series	-3715
ification	-3716
▁-.	-3717
▁When	-3718
▁natural	-3719
ufact	-3720
nơi	-3721
ief	-3722
vertis	-3723
▁store	-3724
▁method	-3725
▁rau	-3726
▁live	-3727
▁evok	-3728
▁Us	-3729
▁Loc	-3730
▁strateg	-3731
bs	-3732
▁Pat	-3733
▁biên	-3734
▁đỡ	-3735
▁modern	-3736
IC	-3737
▁Down	-3738
▁Phòng	-3739
▁Sử	-3740
▁ngược	-3741
lement	-3742
▁wind	-3743
erry	-3744
ruction	-3745
lin	-3746
oints	-3747
ger	-3748
▁hôn	-3749
▁2014	-3750
▁return	-3751
▁media	-3752
▁common	-3753
pper	-3754
uch	-3755
▁hour	-3756
▁appreciate	-3757
get	-3758
▁2019	-3759
▁cut	-3760
▁băng	-3761
til	-3762
▁thiểu	-3763
▁weaknesses	-3764
▁coming	-3765
ival	-3766
▁đợi	-3767
%.	-3768
7,	-3769
▁someone	-3770
ris	-3771
▁cường	-3772
reen	-3773
ớt	-3774
▁Sec	-3775
▁indicates	-3776
▁located	-3777
▁effic	-3778
▁Description	-3779
▁dạy	-3780
▁Det	-3781
ule	-3782
ready	-3783
▁squ	-3784
oman	-3785
▁complete	-3786
▁giành	-3787
▁encourages	-3788
arden	-3789
▁32	-3790
▁Tất	-3791
▁Khu	-3792
▁cm	-3793
▁Sch	-3794
▁gọn	-3795
col	-3796
▁Feb	-3797
35	-3798
000.	-3799
8,	-3800
str	-3801
▁2012	-3802
▁Giả	-3803
ck	-3804
▁particip	-3805
▁ago	-3806
:30	-3807
▁4,	-3808
▁match	-3809
▁princ	-3810
▁move	-3811
▁teach	-3812
▁tắm	-3813
▁tươi	-3814
▁Xem	-3815
ester	-3816
ires	-3817
▁affect	-3818
▁course	-3819
▁num	-3820
▁lộ	-3821
▁gỗ	-3822
▁núi	-3823
▁attract	-3824
irc	-3825
▁chuỗi	-3826
▁James	-3827
ross	-3828
▁conveys	-3829
▁Cam	-3830
▁card	-3831
▁attempt	-3832
▁expert	-3833
oid	-3834
bor	-3835
▁multiple	-3836
iam	-3837
▁CO	-3838
▁opinion	-3839
AM	-3840
▁sat	-3841
▁Thực	-3842
▁Tra	-3843
▁Red	-3844
aker	-3845
▁ngờ	-3846
▁lối	-3847
▁addresses	-3848
▁women	-3849
▁tờ	-3850
▁solution	-3851
pts	-3852
▁increase	-3853
▁suit	-3854
▁London	-3855
ze	-3856
time	-3857
▁skills	-3858
▁ma	-3859
▁March	-3860
text	-3861
▁Out	-3862
▁often	-3863
▁turn	-3864
ables	-3865
▁low	-3866
▁sạch	-3867
▁serves	-3868
▁foot	-3869
onday	-3870
▁doing	-3871
ny	-3872
lege	-3873
hotel	-3874
▁audience	-3875
▁khởi	-3876
▁sóng	-3877
html	-3878
▁After	-3879
▁along	-3880
▁TV	-3881
ii	-3882
RE	-3883
izing	-3884
▁tặng	-3885
review	-3886
obile	-3887
etwork	-3888
ael	-3889
▁Bắc	-3890
▁phận	-3891
▁priv	-3892
▁Center	-3893
▁Google	-3894
▁Giấy	-3895
illed	-3896
aby	-3897
sc	-3898
uk	-3899
olf	-3900
▁Trả	-3901
▁port	-3902
ifi	-3903
▁Cre	-3904
ựng	-3905
imate	-3906
▁comes	-3907
▁message	-3908
▁model	-3909
iforn	-3910
▁books	-3911
▁vế	-3912
▁Mod	-3913
▁source	-3914
▁2015	-3915
▁Friday	-3916
ãng	-3917
▁camp	-3918
▁Av	-3919
ngred	-3920
eek	-3921
▁meas	-3922
ida	-3923
▁nạn	-3924
▁Tom	-3925
▁fish	-3926
▁duyệt	-3927
▁install	-3928
▁wa	-3929
go	-3930
airs	-3931
▁Get	-3932
95	-3933
itchen	-3934
ão	-3935
uary	-3936
▁bí	-3937
▁Thu	-3938
▁198	-3939
▁results	-3940
St	-3941
▁ability	-3942
▁pages	-3943
▁Địa	-3944
▁Book	-3945
▁af	-3946
▁doub	-3947
ifornia	-3948
▁thỏa	-3949
arily	-3950
▁mag	-3951
ged	-3952
▁body	-3953
ivity	-3954
▁ước	-3955
▁control	-3956
▁House	-3957
▁County	-3958
▁date	-3959
▁Design	-3960
ari	-3961
▁gall	-3962
▁represent	-3963
▁download	-3964
anies	-3965
▁comment	-3966
▁sót	-3967
▁2016	-3968
▁Khách	-3969
igital	-3970
▁quick	-3971
osing	-3972
eo	-3973
ST	-3974
ground	-3975
▁phi	-3976
▁href	-3977
▁Canada	-3978
▁thụ	-3979
▁đứng	-3980
▁bơi	-3981
obal	-3982
▁bếp	-3983
▁park	-3984
________	-3985
Hình	-3986
▁tàng	-3987
▁Top	-3988
astic	-3989
▁sold	-3990
▁Âu	-3991
▁detail	-3992
▁June	-3993
▁Lập	-3994
▁walk	-3995
▁gir	-3996
▁góc	-3997
▁protect	-3998
aily	-3999
▁ống	-4000
istic	-4001
▁niên	-4002
▁item	-4003
atic	-4004
▁allows	-4005
ements	-4006
▁biases	-4007
▁mot	-4008
▁giai	-4009
-5	-4010
▁bal	-4011
ift	-4012
▁1/2	-4013
▁object	-4014
partment	-4015
▁weight	-4016
cast	-4017
▁vol	-4018
▁quán	-4019
▁analyze	-4020
▁châu	-4021
▁celebr	-4022
▁regard	-4023
▁sound	-4024
không	-4025
▁Thus	-4026
know	-4027
▁lân	-4028
▁Nhưng	-4029
▁living	-4030
▁Euro	-4031
▁48	-4032
ajor	-4033
▁)	-4034
▁Ac	-4035
▁print	-4036
BC	-4037
ói	-4038
▁though	-4039
▁choose	-4040
▁cũ	-4041
▁David	-4042
▁advoc	-4043
▁fire	-4044
▁State	-4045
▁Ấ	-4046
▁April	-4047
osp	-4048
78	-4049
▁quý	-4050
▁reviews	-4051
▁areas	-4052
▁similar	-4053
▁essential	-4054
In	-4055
hi	-4056
▁refer	-4057
▁safety	-4058
ram	-4059
▁Ủ	-4060
ained	-4061
▁Tư	-4062
▁Chỉ	-4063
▁inn	-4064
68	-4065
IT	-4066
▁intro	-4067
▁building	-4068
▁lives	-4069
ension	-4070
edding	-4071
▁click	-4072
ython	-4073
▁achieve	-4074
▁blue	-4075
▁thải	-4076
▁Điểm	-4077
▁chút	-4078
▁Vào	-4079
▁Health	-4080
▁thought	-4081
su	-4082
▁write	-4083
▁fund	-4084
▁nửa	-4085
/3	-4086
ớm	-4087
apt	-4088
▁Just	-4089
tom	-4090
▁caus	-4091
▁Direct	-4092
▁trại	-4093
▁Monday	-4094
▁Pháp	-4095
48	-4096
▁300	-4097
▁collection	-4098
49	-4099
▁worth	-4100
▁lửa	-4101
▁several	-4102
▁lắng	-4103
▁căng	-4104
▁single	-4105
▁kind	-4106
iders	-4107
▁bott	-4108
formation	-4109
Nh	-4110
▁already	-4111
iff	-4112
aged	-4113
▁tấn	-4114
▁Op	-4115
uff	-4116
▁tấm	-4117
bed	-4118
”,	-4119
▁mind	-4120
▁Ủy	-4121
▁acknow	-4122
▁5,	-4123
▁trust	-4124
▁until	-4125
▁elements	-4126
▁tuân	-4127
▁function	-4128
▁contains	-4129
▁larg	-4130
▁actions	-4131
orge	-4132
uate	-4133
▁ways	-4134
▁cannot	-4135
aturday	-4136
▁ant	-4137
▁War	-4138
ủi	-4139
▁Pres	-4140
▁complex	-4141
▁suggesting	-4142
▁purchase	-4143
▁Ấn	-4144
anced	-4145
etic	-4146
▁tp	-4147
▁reconc	-4148
▁Street	-4149
▁advice	-4150
27	-4151
▁liệt	-4152
bl	-4153
ender	-4154
▁sớm	-4155
self	-4156
ober	-4157
▁Sept	-4158
▁photos	-4159
▁Her	-4160
▁materials	-4161
▁July	-4162
▁sưu	-4163
ring	-4164
▁Wind	-4165
▁society	-4166
▁California	-4167
▁Sund	-4168
▁That	-4169
▁ball	-4170
▁Làm	-4171
▁Wed	-4172
▁loạt	-4173
▁exist	-4174
▁hotline	-4175
▁months	-4176
zz	-4177
vant	-4178
▁associated	-4179
selves	-4180
▁Total	-4181
atform	-4182
▁siêu	-4183
▁bốn	-4184
▁trấn	-4185
▁Rel	-4186
▁Hol	-4187
▁9.	-4188
▁fre	-4189
izes	-4190
▁photograph	-4191
▁Bel	-4192
▁addition	-4193
▁itself	-4194
▁latest	-4195
NĐ	-4196
▁never	-4197
▁ấm	-4198
▁cốc	-4199
TM	-4200
▁chụp	-4201
▁khiển	-4202
▁đua	-4203
▁bring	-4204
▁file	-4205
69	-4206
ma	-4207
▁mentioning	-4208
▁significance	-4209
▁trồng	-4210
▁belief	-4211
▁họp	-4212
▁Đánh	-4213
▁wood	-4214
▁đèn	-4215
▁bông	-4216
▁đựng	-4217
▁Đăng	-4218
ngredients	-4219
▁announ	-4220
▁coun	-4221
icles	-4222
▁Wash	-4223
val	-4224
▁Now	-4225
▁mil	-4226
AP	-4227
▁sales	-4228
▁lành	-4229
▁third	-4230
roll	-4231
▁500	-4232
▁attention	-4233
▁lệnh	-4234
▁Acc	-4235
▁mừng	-4236
agraph	-4237
▁refers	-4238
▁Ông	-4239
▁Tại	-4240
▁trao	-4241
▁First	-4242
▁sữa	-4243
▁###	-4244
▁}	-4245
itle	-4246
iêm	-4247
▁offered	-4248
▁host	-4249
▁Last	-4250
▁Sam	-4251
ashion	-4252
▁rather	-4253
▁Thanks	-4254
▁sale	-4255
▁tạm	-4256
▁concern	-4257
▁energ	-4258
▁tóc	-4259
▁doesn	-4260
▁100%	-4261
▁added	-4262
▁hom	-4263
▁table	-4264
oth	-4265
▁Tài	-4266
▁sánh	-4267
vision	-4268
▁Saturday	-4269
▁paragraph	-4270
▁khung	-4271
ude	-4272
▁bãi	-4273
▁init	-4274
▁Bối	-4275
▁đĩa	-4276
▁ask	-4277
▁thing	-4278
▁Vậy	-4279
▁companies	-4280
▁across	-4281
▁hủy	-4282
▁viewpoints	-4283
▁hầu	-4284
▁bath	-4285
▁National	-4286
▁Play	-4287
▁hạ	-4288
▁limited	-4289
▁bà	-4290
67	-4291
▁Chi	-4292
òi	-4293
▁offering	-4294
▁trộn	-4295
aste	-4296
▁bắc	-4297
▁sil	-4298
▁Ag	-4299
▁Rep	-4300
▁31	-4301
▁young	-4302
▁huy	-4303
▁wide	-4304
▁quà	-4305
▁deal	-4306
:0	-4307
aps	-4308
▁sốt	-4309
▁Thêm	-4310
otels	-4311
add	-4312
weet	-4313
ifies	-4314
▁Je	-4315
▁tóm	-4316
▁training	-4317
▁select	-4318
▁khía	-4319
▁hải	-4320
▁connection	-4321
▁lọc	-4322
▁vườn	-4323
▁Ty	-4324
▁triết	-4325
▁simple	-4326
ream	-4327
▁Mag	-4328
▁flaw	-4329
▁Mary	-4330
▁doc	-4331
owers	-4332
55	-4333
-8	-4334
▁khô	-4335
▁resources	-4336
▁strengths	-4337
▁office	-4338
▁shows	-4339
▁bit	-4340
▁human	-4341
ises	-4342
oses	-4343
▁imm	-4344
ening	-4345
▁Sk	-4346
▁sông	-4347
▁involved	-4348
What	-4349
ena	-4350
▁lẻ	-4351
▁tax	-4352
▁thầu	-4353
▁restaur	-4354
▁6,	-4355
▁Hệ	-4356
▁mũ	-4357
enced	-4358
▁October	-4359
▁mix	-4360
▁version	-4361
▁Spr	-4362
tein	-4363
▁kịch	-4364
irth	-4365
▁trứng	-4366
▁cứng	-4367
▁Hồ	-4368
▁kẻ	-4369
▁goes	-4370
▁physical	-4371
▁twice	-4372
▁Act	-4373
ww	-4374
▁quen	-4375
▁cụm	-4376
▁Phil	-4377
NH	-4378
ẹn	-4379
▁needed	-4380
▁everyone	-4381
▁manufact	-4382
▁organization	-4383
▁ly	-4384
▁bơ	-4385
OS	-4386
▁PM	-4387
▁xo	-4388
▁took	-4389
▁sổ	-4390
ớp	-4391
▁insp	-4392
▁track	-4393
▁remaining	-4394
▁AM	-4395
▁mom	-4396
lemm	-4397
▁kêu	-4398
▁wall	-4399
▁veh	-4400
▁far	-4401
rive	-4402
39	-4403
Các	-4404
fficient	-4405
mas	-4406
▁Mor	-4407
▁coll	-4408
▁accom	-4409
’.	-4410
▁bạc	-4411
▁analyzing	-4412
▁Dan	-4413
▁kem	-4414
▁writing	-4415
▁ổn	-4416
▁máu	-4417
▁tệp	-4418
▁phúc	-4419
ourn	-4420
▁green	-4421
istance	-4422
▁dilemm	-4423
▁August	-4424
ona	-4425
▁traditional	-4426
▁nhãn	-4427
▁09	-4428
▁hạnh	-4429
▁Paul	-4430
uel	-4431
▁accept	-4432
▁tộc	-4433
▁Green	-4434
▁management	-4435
▁reflect	-4436
▁January	-4437
ume	-4438
ised	-4439
▁Flor	-4440
term	-4441
▁creating	-4442
▁comments	-4443
ager	-4444
▁getting	-4445
-4	-4446
kết	-4447
▁Mỗi	-4448
▁advant	-4449
TC	-4450
▁speed	-4451
uesday	-4452
▁150	-4453
▁estab	-4454
▁vu	-4455
▁Lưu	-4456
▁oil	-4457
▁believe	-4458
onder	-4459
eds	-4460
ovember	-4461
▁Python	-4462
▁vé	-4463
ells	-4464
▁Ne	-4465
ators	-4466
elcome	-4467
▁recommends	-4468
▁10,	-4469
▁staff	-4470
▁75	-4471
mit	-4472
▁Hall	-4473
▁ẩm	-4474
cer	-4475
▁cánh	-4476
▁quỹ	-4477
▁reading	-4478
▁tường	-4479
▁release	-4480
▁dress	-4481
▁Danh	-4482
▁Posted	-4483
▁security	-4484
▁businesses	-4485
▁et	-4486
board	-4487
▁vợ	-4488
▁gà	-4489
urch	-4490
field	-4491
▁lắp	-4492
▁persu	-4493
▁illustr	-4494
▁ded	-4495
▁White	-4496
▁About	-4497
▁Ann	-4498
▁platform	-4499
▁pick	-4500
ựu	-4501
▁Nội	-4502
▁bè	-4503
ellent	-4504
▁Click	-4505
EC	-4506
▁Business	-4507
▁Cuộc	-4508
ago	-4509
ague	-4510
▁Time	-4511
▁Đức	-4512
▁September	-4513
▁practice	-4514
▁tour	-4515
nesday	-4516
pre	-4517
Tr	-4518
▁Port	-4519
▁inches	-4520
▁ple	-4521
▁weeks	-4522
▁clients	-4523
▁liền	-4524
▁recommend	-4525
▁Chương	-4526
▁Cle	-4527
▁interested	-4528
▁spe	-4529
▁players	-4530
▁face	-4531
64	-4532
▁ngọt	-4533
=63	-4534
▁Tuyên	-4535
▁lặp	-4536
▁khuôn	-4537
▁opportunity	-4538
ano	-4539
▁energy	-4540
▁maintain	-4541
▁dị	-4542
▁kn	-4543
ench	-4544
▁produc	-4545
▁mát	-4546
▁mỹ	-4547
▁Pal	-4548
abel	-4549
▁ngại	-4550
▁study	-4551
▁rủi	-4552
illa	-4553
itor	-4554
▁reliable	-4555
ros	-4556
illion	-4557
▁Tex	-4558
▁changes	-4559
ellow	-4560
▁thai	-4561
▁Kiểm	-4562
▁miền	-4563
▁images	-4564
▁front	-4565
▁arr	-4566
▁ghế	-4567
▁hol	-4568
ocks	-4569
▁major	-4570
inter	-4571
▁effects	-4572
▁included	-4573
elling	-4574
▁expresses	-4575
▁follows	-4576
▁đế	-4577
▁Hình	-4578
▁UK	-4579
▁known	-4580
▁prim	-4581
▁đạp	-4582
▁useful	-4583
▁center	-4584
▁average	-4585
▁Châu	-4586
▁explain	-4587
================	-4588
ither	-4589
▁vay	-4590
▁chảy	-4591
▁táo	-4592
isc	-4593
▁growth	-4594
ube	-4595
▁See	-4596
▁divid	-4597
▁November	-4598
▁Đầu	-4599
▁interesting	-4600
year	-4601
▁Sunday	-4602
▁stock	-4603
boxed	-4604
▁Does	-4605
▁thậm	-4606
▁Rock	-4607
▁Each	-4608
▁tick	-4609
▁photo	-4610
▁paper	-4611
itted	-4612
▁Rich	-4613
omet	-4614
urance	-4615
▁software	-4616
EL	-4617
▁Michael	-4618
icks	-4619
▁internet	-4620
▁Show	-4621
▁medical	-4622
▁Wifi	-4623
▁Mac	-4624
▁receive	-4625
▁recent	-4626
▁chua	-4627
▁Alex	-4628
▁opportunities	-4629
▁Tuesday	-4630
race	-4631
▁town	-4632
▁satis	-4633
▁hỗn	-4634
▁Tổ	-4635
▁Đã	-4636
AD	-4637
ibrary	-4638
ruary	-4639
▁đẳng	-4640
▁Giám	-4641
▁created	-4642
▁Pri	-4643
iod	-4644
▁King	-4645
▁rời	-4646
▁ninh	-4647
▁trùng	-4648
▁Mẫu	-4649
▁Vui	-4650
▁Inter	-4651
net	-4652
▁đằng	-4653
▁đương	-4654
▁evokes	-4655
▁Class	-4656
▁prem	-4657
▁views	-4658
right	-4659
▁received	-4660
▁khắp	-4661
▁đu	-4662
▁đám	-4663
▁truyện	-4664
▁Twitter	-4665
▁effectively	-4666
▁kém	-4667
▁reference	-4668
▁cause	-4669
ET	-4670
rows	-4671
▁sle	-4672
▁Đường	-4673
zy	-4674
▁sun	-4675
ùa	-4676
ursday	-4677
▁emphasize	-4678
▁tủ	-4679
▁Europe	-4680
▁ful	-4681
▁Ev	-4682
▁[...]	-4683
ụng	-4684
opping	-4685
comes	-4686
▁record	-4687
▁Cộng	-4688
▁2011	-4689
▁press	-4690
▁decisions	-4691
▁regulation	-4692
▁hope	-4693
▁điệu	-4694
▁hồng	-4695
▁application	-4696
otes	-4697
▁principle	-4698
▁Super	-4699
▁Log	-4700
▁artist	-4701
▁Mr	-4702
▁note	-4703
gar	-4704
▁throughout	-4705
▁resid	-4706
▁hon	-4707
▁original	-4708
▁considering	-4709
▁hoàng	-4710
iliation	-4711
▁thác	-4712
▁helps	-4713
▁ever	-4714
wor	-4715
▁Of	-4716
▁|.	-4717
mar	-4718
▁đài	-4719
osh	-4720
oking	-4721
cember	-4722
▁movie	-4723
▁Giáo	-4724
▁solutions	-4725
▁pounds	-4726
▁explores	-4727
▁dilemmas	-4728
▁33	-4729
OT	-4730
atures	-4731
▁upcoming	-4732
▁problems	-4733
▁attend	-4734
▁vẽ	-4735
▁Máy	-4736
▁Chọn	-4737
▁Wednesday	-4738
▁mê	-4739
▁phone	-4740
▁400	-4741
▁Information	-4742
▁star	-4743
ẹo	-4744
▁leading	-4745
▁five	-4746
:5	-4747
▁beneficial	-4748
▁Vis	-4749
▁tal	-4750
▁nguyện	-4751
▁Austral	-4752
▁production	-4753
▁wants	-4754
▁02	-4755
hold	-4756
▁among	-4757
aving	-4758
reg	-4759
▁education	-4760
▁Phân	-4761
▁identifies	-4762
▁cites	-4763
▁Video	-4764
▁oun	-4765
▁2010	-4766
▁Commun	-4767
amin	-4768
,000	-4769
▁Find	-4770
▁distance	-4771
▁pin	-4772
▁doubts	-4773
plify	-4774
anch	-4775
▁tỏ	-4776
én	-4777
▁meeting	-4778
▁trip	-4779
▁inj	-4780
▁Angel	-4781
▁previous	-4782
▁Mal	-4783
▁aspects	-4784
▁Lou	-4785
place	-4786
▁Gold	-4787
▁``	-4788
▁Im	-4789
▁Met	-4790
▁hè	-4791
▁concept	-4792
burg	-4793
▁thờ	-4794
▁Lựa	-4795
6)	-4796
▁IS	-4797
reh	-4798
▁rock	-4799
▁Sun	-4800
▁Good	-4801
ules	-4802
▁Tóm	-4803
Tôi	-4804
adem	-4805
▁economic	-4806
ka	-4807
▁February	-4808
▁vải	-4809
▁continue	-4810
47	-4811
▁recipe	-4812
ategory	-4813
▁Mặc	-4814
▁won	-4815
▁Washington	-4816
ọa	-4817
▁bại	-4818
ms	-4819
US	-4820
▁code	-4821
anger	-4822
ứt	-4823
▁vuông	-4824
▁Dịch	-4825
▁Back	-4826
osph	-4827
▁length	-4828
eral	-4829
▁Rem	-4830
▁chim	-4831
▁mentioned	-4832
itar	-4833
▁Service	-4834
anta	-4835
ette	-4836
▁Loại	-4837
▁glass	-4838
▁States	-4839
▁giãn	-4840
▁cháy	-4841
▁called	-4842
▁Road	-4843
rel	-4844
▁bề	-4845
▁plant	-4846
▁Dựa	-4847
▁gold	-4848
pos	-4849
▁ủy	-4850
▁Cách	-4851
▁hiệp	-4852
▁suitable	-4853
▁member	-4854
urt	-4855
▁themselves	-4856
▁Thursday	-4857
▁death	-4858
▁03	-4859
▁required	-4860
▁option	-4861
▁conditions	-4862
▁conven	-4863
PS	-4864
▁prevent	-4865
▁reconciliation	-4866
▁sợ	-4867
▁East	-4868
▁Texas	-4869
▁display	-4870
ipping	-4871
▁identify	-4872
ole	-4873
▁mộ	-4874
▁rừng	-4875
izza	-4876
▁2:	-4877
▁engine	-4878
▁khán	-4879
▁tách	-4880
▁Lan	-4881
▁197	-4882
▁Tòa	-4883
▁advocates	-4884
▁December	-4885
▁goal	-4886
▁fab	-4887
▁chậm	-4888
▁miếng	-4889
▁Hel	-4890
ging	-4891
▁held	-4892
▁Year	-4893
▁Star	-4894
▁mời	-4895
có	-4896
▁talk	-4897
▁Nhân	-4898
▁avoid	-4899
▁Rob	-4900
▁Ham	-4901
▁cat	-4902
▁theme	-4903
▁begin	-4904
▁Best	-4905
orage	-4906
▁Sil	-4907
▁Techn	-4908
▁kitchen	-4909
/4	-4910
▁higher	-4911
ston	-4912
edi	-4913
▁Download	-4914
ava	-4915
▁trống	-4916
66	-4917
▁Sum	-4918
▁Mart	-4919
▁says	-4920
▁Prof	-4921
▁Quy	-4922
ffee	-4923
aint	-4924
▁vỏ	-4925
▁Mic	-4926
▁protein	-4927
ivery	-4928
▁focusing	-4929
▁war	-4930
▁base	-4931
38	-4932
▁cup	-4933
▁explore	-4934
▁English	-4935
ado	-4936
▁considers	-4937
▁correct	-4938
CH	-4939
▁trượt	-4940
fl	-4941
iction	-4942
▁Mem	-4943
▁Ob	-4944
iveness	-4945
▁(20	-4946
▁started	-4947
rip	-4948
ola	-4949
▁pan	-4950
▁party	-4951
IM	-4952
▁player	-4953
▁Group	-4954
▁resolves	-4955
▁thận	-4956
▁Brit	-4957
37	-4958
ising	-4959
▁4)	-4960
▁cài	-4961
▁represents	-4962
ipment	-4963
▁Great	-4964
▁cốt	-4965
▁ngo	-4966
▁Ben	-4967
▁Services	-4968
UR	-4969
ably	-4970
▁lượt	-4971
ha	-4972
ued	-4973
▁decor	-4974
▁condition	-4975
reat	-4976
▁concludes	-4977
▁lay	-4978
▁Cour	-4979
▁supports	-4980
▁register	-4981
▁Tim	-4982
▁gain	-4983
EO	-4984
▁via	-4985
▁huấn	-4986
▁egg	-4987
▁chồng	-4988
▁playing	-4989
▁amaz	-4990
▁subst	-4991
▁increased	-4992
ban	-4993
izations	-4994
▁summer	-4995
istration	-4996
▁Thế	-4997
▁tuyết	-4998
agon	-4999
mod	-5000
ply	-5001
▁achieves	-5002
▁Jack	-5003
rug	-5004
▁Share	-5005
▁7,	-5006
▁dam	-5007
asy	-5008
▁Dec	-5009
▁rad	-5010
▁instead	-5011
▁bồi	-5012
▁band	-5013
▁ones	-5014
▁enh	-5015
ales	-5016
32	-5017
▁Mặt	-5018
▁trông	-5019
▁cop	-5020
▁Associ	-5021
iet	-5022
▁rate	-5023
▁tròn	-5024
▁necessarily	-5025
▁region	-5026
▁ep	-5027
▁Trans	-5028
▁Vị	-5029
▁Christmas	-5030
▁feed	-5031
▁ingredients	-5032
▁TR	-5033
▁cool	-5034
▁1:	-5035
▁phóng	-5036
▁cookies	-5037
ians	-5038
ades	-5039
▁nhờ	-5040
▁International	-5041
▁abs	-5042
▁Bill	-5043
▁202	-5044
▁sn	-5045
▁bây	-5046
press	-5047
ota	-5048
▁điệp	-5049
▁land	-5050
mail	-5051
▁opp	-5052
▁outd	-5053
▁Bre	-5054
▁giày	-5055
▁official	-5056
▁lit	-5057
▁li	-5058
▁Date	-5059
▁cards	-5060
▁prices	-5061
mat	-5062
ception	-5063
ki	-5064
▁Pet	-5065
▁Đông	-5066
▁compon	-5067
▁vac	-5068
▁hair	-5069
▁sơn	-5070
cript	-5071
rooms	-5072
▁Val	-5073
▁đổ	-5074
▁Aut	-5075
▁Nhật	-5076
▁khá	-5077
▁rãi	-5078
.”.	-5079
▁thơm	-5080
▁soon	-5081
▁ignores	-5082
umn	-5083
▁costs	-5084
▁happy	-5085
▁phrase	-5086
▁anyone	-5087
▁sufficient	-5088
▁skin	-5089
▁club	-5090
arget	-5091
▁Vương	-5092
▁List	-5093
▁dish	-5094
▁Nor	-5095
▁kháng	-5096
duce	-5097
▁close	-5098
▁period	-5099
▁Sáu	-5100
▁sty	-5101
▁Đọc	-5102
▁bad	-5103
▁Sản	-5104
▁entire	-5105
IL	-5106
▁Gener	-5107
▁tổn	-5108
olate	-5109
▁pha	-5110
▁shop	-5111
1)	-5112
▁Mil	-5113
oke	-5114
▁marketing	-5115
▁innov	-5116
▁gift	-5117
▁fresh	-5118
▁sched	-5119
▁systems	-5120
imum	-5121
ternal	-5122
▁van	-5123
▁Blue	-5124
▁safe	-5125
▁early	-5126
▁giảng	-5127
▁Color	-5128
▁Care	-5129
▁Jul	-5130
mb	-5131
▁fallacy	-5132
ils	-5133
▁nhuận	-5134
attle	-5135
▁thí	-5136
▁whole	-5137
▁8,	-5138
▁scient	-5139
iệng	-5140
▁```	-5141
▁lưới	-5142
▁chặn	-5143
que	-5144
▁arch	-5145
head	-5146
▁Phi	-5147
▁narr	-5148
hoặc	-5149
▁Size	-5150
▁Phụ	-5151
▁qual	-5152
▁Tu	-5153
▁matter	-5154
hib	-5155
▁PH	-5156
▁relevant	-5157
▁background	-5158
hood	-5159
▁thảm	-5160
▁42	-5161
▁feature	-5162
▁projects	-5163
unk	-5164
▁Tháng	-5165
▁ung	-5166
▁bus	-5167
▁Thom	-5168
ered	-5169
ming	-5170
▁pound	-5171
▁Since	-5172
▁fast	-5173
off	-5174
cel	-5175
▁2017.	-5176
▁states	-5177
▁Thiết	-5178
▁Cons	-5179
▁Chia	-5180
▁sắm	-5181
▁treatment	-5182
▁deg	-5183
ìa	-5184
▁Contact	-5185
▁Ir	-5186
▁contribute	-5187
ycl	-5188
roid	-5189
▁miệng	-5190
▁compreh	-5191
▁meaning	-5192
▁weather	-5193
▁either	-5194
▁characters	-5195
▁heart	-5196
▁ngồi	-5197
▁max	-5198
▁Imp	-5199
ided	-5200
▁bag	-5201
dd	-5202
▁đón	-5203
irus	-5204
▁thoát	-5205
▁forward	-5206
-19	-5207
▁nút	-5208
▁Music	-5209
▁yên	-5210
▁2008	-5211
▁Law	-5212
▁ID	-5213
▁goals	-5214
▁Ear	-5215
▁1/4	-5216
▁fix	-5217
ried	-5218
▁ong	-5219
face	-5220
▁encourage	-5221
▁culture	-5222
▁AI	-5223
▁risk	-5224
▁hào	-5225
▁flawed	-5226
▁pattern	-5227
ta	-5228
tract	-5229
▁excellent	-5230
▁đứa	-5231
light	-5232
▁later	-5233
▁legal	-5234
▁accurate	-5235
▁expertise	-5236
ello	-5237
▁aware	-5238
▁Hiệp	-5239
▁tools	-5240
▁dur	-5241
▁touch	-5242
how	-5243
▁Hướng	-5244
▁Fil	-5245
▁gió	-5246
▁Check	-5247
▁chấm	-5248
▁fig	-5249
▁dinh	-5250
▁favorite	-5251
fts	-5252
oles	-5253
omb	-5254
??	-5255
▁Hotel	-5256
▁Tải	-5257
▁jud	-5258
▁ut	-5259
36	-5260
▁coup	-5261
▁running	-5262
▁Thank	-5263
▁Nguồn	-5264
▁Club	-5265
▁drive	-5266
▁loss	-5267
▁prep	-5268
▁wedding	-5269
just	-5270
ini	-5271
▁Set	-5272
aced	-5273
avy	-5274
▁muối	-5275
▁ren	-5276
▁polit	-5277
▁once	-5278
▁thuyền	-5279
▁Main	-5280
▁ready	-5281
▁Bình	-5282
▁phỏng	-5283
▁network	-5284
▁Báo	-5285
▁credibility	-5286
▁Tod	-5287
200	-5288
▁Thủ	-5289
.".	-5290
▁opt	-5291
▁Big	-5292
▁kids	-5293
EM	-5294
▁influ	-5295
▁Quận	-5296
▁clos	-5297
000.000	-5298
="/	-5299
▁chín	-5300
gy	-5301
▁eat	-5302
▁quang	-5303
OM	-5304
otton	-5305
▁lò	-5306
ournal	-5307
▁square	-5308
▁Mo	-5309
inn	-5310
▁Triết	-5311
▁Quyết	-5312
▁deliver	-5313
▁pm	-5314
itation	-5315
pped	-5316
▁cur	-5317
iger	-5318
▁student	-5319
ened	-5320
ss	-5321
26	-5322
ties	-5323
▁looks	-5324
▁encouraging	-5325
▁morning	-5326
▁Sing	-5327
▁Bob	-5328
▁prior	-5329
▁bought	-5330
▁Wood	-5331
▁hit	-5332
vince	-5333
▁sáu	-5334
▁Tiêu	-5335
▁College	-5336
▁longer	-5337
▁9,	-5338
▁Apple	-5339
▁nhánh	-5340
▁difference	-5341
úa	-5342
ims	-5343
▁rối	-5344
▁Mel	-5345
▁11,	-5346
34	-5347
▁global	-5348
▁built	-5349
▁pictures	-5350
▁Syst	-5351
▁Fam	-5352
ING	-5353
▁America	-5354
▁extra	-5355
sự	-5356
▁nice	-5357
▁Mã	-5358
ancy	-5359
▁(5)	-5360
▁fashion	-5361
▁Details	-5362
We	-5363
▁daily	-5364
onstr	-5365
▁vang	-5366
uts	-5367
gress	-5368
▁regarding	-5369
▁12.	-5370
ecut	-5371
▁everything	-5372
▁digital	-5373
▁Arch	-5374
▁describe	-5375
aid	-5376
▁Đậu	-5377
ya	-5378
▁38	-5379
▁Some	-5380
▁mơ	-5381
▁khứ	-5382
ệt	-5383
▁(8	-5384
▁applications	-5385
▁Reviews	-5386
▁beauty	-5387
▁final	-5388
▁Bay	-5389
ource	-5390
▁logo	-5391
▁Water	-5392
▁mùi	-5393
▁Nha	-5394
▁Xin	-5395
▁bút	-5396
▁implement	-5397
▁road	-5398
▁lif	-5399
-7	-5400
▁employ	-5401
▁risks	-5402
▁garden	-5403
▁Love	-5404
iring	-5405
▁advertis	-5406
▁creative	-5407
amb	-5408
OL	-5409
▁chờ	-5410
▁camera	-5411
▁gar	-5412
action	-5413
▁dáng	-5414
▁mm	-5415
98	-5416
▁Tên	-5417
acing	-5418
▁round	-5419
ruit	-5420
▁2009	-5421
▁giàu	-5422
▁mo	-5423
▁Du	-5424
▁Vol	-5425
▁career	-5426
isco	-5427
quality	-5428
duction	-5429
ca	-5430
▁Mô	-5431
▁Power	-5432
ilies	-5433
that	-5434
▁nợ	-5435
▁harm	-5436
ector	-5437
▁sand	-5438
▁percent	-5439
▁wonder	-5440
▁Đảng	-5441
▁Chắc	-5442
▁gives	-5443
▁Camp	-5444
▁khoán	-5445
bles	-5446
▁autom	-5447
▁chủng	-5448
understand	-5449
▁Kar	-5450
▁Ret	-5451
▁Học	-5452
▁nhấp	-5453
most	-5454
oft	-5455
▁củng	-5456
▁Full	-5457
▁Int	-5458
lied	-5459
▁device	-5460
BA	-5461
TV	-5462
abin	-5463
▁CA	-5464
ooth	-5465
cul	-5466
▁lát	-5467
▁NY	-5468
itude	-5469
▁six	-5470
ero	-5471
▁Lear	-5472
▁went	-5473
▁ngũ	-5474
apan	-5475
iddle	-5476
IP	-5477
▁surr	-5478
▁tiệc	-5479
care	-5480
oups	-5481
▁Open	-5482
▁vinh	-5483
▁parents	-5484
▁Mad	-5485
▁34	-5486
▁Cap	-5487
oul	-5488
▁vo	-5489
$.	-5490
▁highly	-5491
▁PC	-5492
▁lan	-5493
▁ám	-5494
▁ngạc	-5495
illing	-5496
▁mãi	-5497
▁logically	-5498
▁colors	-5499
▁wear	-5500
▁construction	-5501
uests	-5502
2)	-5503
▁Jim	-5504
azz	-5505
▁least	-5506
onse	-5507
xy	-5508
▁easily	-5509
▁Thái	-5510
nếu	-5511
▁capt	-5512
▁demonstr	-5513
▁Office	-5514
▁Sl	-5515
▁Ả	-5516
▁visual	-5517
▁deb	-5518
▁comfortable	-5519
▁55	-5520
▁floor	-5521
iana	-5522
▁picture	-5523
▁Miss	-5524
▁explan	-5525
▁NH	-5526
▁err	-5527
▁ult	-5528
esth	-5529
▁mưa	-5530
ux	-5531
▁chặt	-5532
anding	-5533
▁seem	-5534
▁serve	-5535
▁superior	-5536
▁board	-5537
▁Long	-5538
ideos	-5539
unt	-5540
▁2018.	-5541
▁paint	-5542
▁05	-5543
TS	-5544
ita	-5545
▁thìa	-5546
▁12,	-5547
▁private	-5548
yees	-5549
▁commit	-5550
▁environmental	-5551
elly	-5552
ậc	-5553
rap	-5554
▁adapt	-5555
ished	-5556
▁vết	-5557
▁180	-5558
▁Florida	-5559
een	-5560
.)	-5561
▁rẻ	-5562
▁Price	-5563
▁selection	-5564
▁2013.	-5565
ustain	-5566
reviews	-5567
▁Market	-5568
▁plans	-5569
▁xương	-5570
▁activity	-5571
▁Mont	-5572
287	-5573
▁birth	-5574
▁esp	-5575
icago	-5576
pri	-5577
▁hẹn	-5578
ecially	-5579
▁Mex	-5580
ament	-5581
▁mic	-5582
med	-5583
estival	-5584
/100	-5585
ospital	-5586
epend	-5587
▁title	-5588
mosph	-5589
▁Lake	-5590
▁released	-5591
▁circ	-5592
▁pet	-5593
▁presence	-5594
uable	-5595
aly	-5596
▁phô	-5597
▁Key	-5598
▁....	-5599
▁rửa	-5600
ủng	-5601
▁Carol	-5602
rian	-5603
venue	-5604
▁Kích	-5605
▁Sở	-5606
mark	-5607
▁lầm	-5608
iture	-5609
sy	-5610
▁cục	-5611
/5	-5612
key	-5613
▁Review	-5614
asket	-5615
tty	-5616
▁evaluate	-5617
rix	-5618
iki	-5619
▁Windows	-5620
▁binh	-5621
riend	-5622
▁comprehensive	-5623
31	-5624
▁methods	-5625
SS	-5626
▁mobile	-5627
istics	-5628
▁George	-5629
egr	-5630
▁acknowled	-5631
▁Kinh	-5632
▁baby	-5633
▁according	-5634
▁Every	-5635
▁rob	-5636
ourney	-5637
▁written	-5638
▁tĩnh	-5639
▁ideal	-5640
▁Real	-5641
▁phú	-5642
▁communic	-5643
imately	-5644
Kh	-5645
▁combination	-5646
▁loạn	-5647
▁behav	-5648
▁CD	-5649
▁integr	-5650
iber	-5651
hire	-5652
▁missing	-5653
▁police	-5654
mon	-5655
▁pizza	-5656
▁Sar	-5657
▁đảng	-5658
▁grad	-5659
iverse	-5660
based	-5661
log	-5662
▁warm	-5663
▁outside	-5664
▁assess	-5665
▁Sand	-5666
▁Type	-5667
▁Work	-5668
▁Found	-5669
▁chạm	-5670
▁benefit	-5671
▁initial	-5672
▁vict	-5673
▁Khoa	-5674
thern	-5675
▁mount	-5676
▁chuột	-5677
▁Au	-5678
▁weekend	-5679
▁sus	-5680
Ng	-5681
▁beach	-5682
▁2014.	-5683
▁efficient	-5684
eet	-5685
igation	-5686
▁actually	-5687
▁atmosph	-5688
▁restaurant	-5689
▁Tạo	-5690
▁Brown	-5691
▁Other	-5692
erman	-5693
▁2021	-5694
▁pool	-5695
▁súng	-5696
▁Amaz	-5697
▁recently	-5698
▁roll	-5699
▁kẹo	-5700
aves	-5701
▁2019.	-5702
▁Tập	-5703
▁Bữa	-5704
geo	-5705
▁doll	-5706
elt	-5707
▁save	-5708
▁surround	-5709
▁communication	-5710
rown	-5711
▁po	-5712
▁request	-5713
▁ST	-5714
▁hà	-5715
▁came	-5716
▁dest	-5717
▁Bra	-5718
ership	-5719
▁histor	-5720
▁nhắn	-5721
▁regular	-5722
▁Mount	-5723
faction	-5724
▁Beach	-5725
▁bậc	-5726
ography	-5727
▁contain	-5728
▁Custom	-5729
">	-5730
▁validity	-5731
imal	-5732
▁dom	-5733
fully	-5734
▁Robert	-5735
▁screen	-5736
▁employees	-5737
▁Est	-5738
▁Oh	-5739
▁Sur	-5740
▁Search	-5741
istan	-5742
▁patients	-5743
▁emotional	-5744
▁xóa	-5745
.\	-5746
iency	-5747
▁insight	-5748
▁wish	-5749
▁Enter	-5750
▁etc	-5751
▁mèo	-5752
▁steps	-5753
amic	-5754
Sh	-5755
▁Kim	-5756
▁conce	-5757
▁consist	-5758
atives	-5759
▁nắm	-5760
▁Well	-5761
▁detailed	-5762
▁leave	-5763
oria	-5764
▁Quản	-5765
▁Bal	-5766
▁While	-5767
")	-5768
▁counter	-5769
▁cưới	-5770
▁Tor	-5771
▁highlight	-5772
▁600	-5773
=63287	-5774
▁Tin	-5775
▁decre	-5776
▁Department	-5777
anda	-5778
▁Light	-5779
lax	-5780
yd	-5781
IV	-5782
arant	-5783
faqts	-5784
faqtt	-5785
faqtqr	-5786
faqtup	-5787
▁chiếm	-5788
ula	-5789
▁Life	-5790
▁Join	-5791
useum	-5792
▁limit	-5793
▁furn	-5794
▁Grand	-5795
▁ngừa	-5796
▁cỏ	-5797
▁cặp	-5798
▁Frank	-5799
▁possibility	-5800
?".	-5801
▁else	-5802
▁tips	-5803
▁Call	-5804
aign	-5805
BS	-5806
▁valuable	-5807
▁kg	-5808
▁Att	-5809
▁cản	-5810
▁planning	-5811
▁gas	-5812
▁Fre	-5813
▁Franc	-5814
▁rơi	-5815
plo	-5816
scri	-5817
no	-5818
▁cỡ	-5819
▁Về	-5820
85	-5821
▁Dự	-5822
▁strategy	-5823
▁scientific	-5824
▁directly	-5825
asc	-5826
▁standard	-5827
▁ver	-5828
▁Hill	-5829
▁viêm	-5830
▁launch	-5831
▁intended	-5832
▁guide	-5833
▁1000	-5834
?'	-5835
▁ớt	-5836
inner	-5837
LC	-5838
▁afford	-5839
lor	-5840
▁Max	-5841
aught	-5842
▁conflict	-5843
ION	-5844
ounts	-5845
-10	-5846
▁2016.	-5847
▁sàn	-5848
▁international	-5849
▁Use	-5850
],	-5851
▁hỏng	-5852
▁răng	-5853
▁Russ	-5854
NA	-5855
xem	-5856
well	-5857
akers	-5858
ander	-5859
▁step	-5860
ios	-5861
▁Phát	-5862
▁target	-5863
van	-5864
che	-5865
▁atmosphere	-5866
▁notes	-5867
▁Rad	-5868
td	-5869
▁farm	-5870
▁animals	-5871
▁flav	-5872
▁Afr	-5873
ercial	-5874
▁Project	-5875
DF	-5876
▁chứ	-5877
▁tan	-5878
▁Company	-5879
▁65	-5880
uted	-5881
▁equipment	-5882
▁đệ	-5883
▁basis	-5884
ij	-5885
▁Also	-5886
CC	-5887
▁defin	-5888
▁Island	-5889
▁setting	-5890
ae	-5891
▁sentence	-5892
iding	-5893
▁Los	-5894
▁requirements	-5895
-6	-5896
where	-5897
aming	-5898
▁illustrate	-5899
▁phẫu	-5900
▁simply	-5901
ỗng	-5902
▁(7	-5903
▁larger	-5904
▁Japan	-5905
ensions	-5906
▁Comments	-5907
▁Sân	-5908
▁ngừng	-5909
▁document	-5910
("	-5911
▁divide	-5912
▁commercial	-5913
▁amazing	-5914
▁lỗ	-5915
▁chance	-5916
rict	-5917
▁nhựa	-5918
▁simplify	-5919
▁Peter	-5920
▁India	-5921
▁Fire	-5922
▁khấu	-5923
▁cười	-5924
▁Special	-5925
mission	-5926
oga	-5927
▁Nhận	-5928
berg	-5929
,'	-5930
ading	-5931
▁Chicago	-5932
clusive	-5933
▁dày	-5934
ala	-5935
▁2012.	-5936
ailability	-5937
▁remov	-5938
▁hãng	-5939
▁dần	-5940
▁2015.	-5941
vest	-5942
▁IN	-5943
▁Progr	-5944
▁giọng	-5945
▁sex	-5946
▁Tiến	-5947
▁challenge	-5948
▁instruct	-5949
▁former	-5950
▁ignoring	-5951
▁anything	-5952
down	-5953
ụy	-5954
idth	-5955
▁programs	-5956
▁towards	-5957
▁37	-5958
▁Mike	-5959
42	-5960
▁temper	-5961
▁Phương	-5962
▁Word	-5963
▁địch	-5964
▁Er	-5965
▁classic	-5966
▁viol	-5967
▁Vir	-5968
▁lông	-5969
ological	-5970
▁hâm	-5971
▁spent	-5972
▁components	-5973
▁especially	-5974
iment	-5975
▁guests	-5976
▁storage	-5977
▁ang	-5978
▁Online	-5979
▁contract	-5980
porary	-5981
▁Coun	-5982
▁195	-5983
oting	-5984
▁His	-5985
▁Any	-5986
▁cầm	-5987
itect	-5988
▁carbon	-5989
▁families	-5990
▁nhảy	-5991
▁IP	-5992
▁practical	-5993
▁facts	-5994
▁Trump	-5995
house	-5996
▁frame	-5997
▁son	-5998
do	-5999
▁driving	-6000
How	-6001
▁inside	-6002
▁map	-6003
▁broad	-6004
xit	-6005
▁thiệt	-6006
▁norm	-6007
▁tree	-6008
▁Điện	-6009
▁improved	-6010
qrt	-6011
▁Che	-6012
▁Hiện	-6013
▁rooms	-6014
▁indicate	-6015
43	-6016
▁apply	-6017
iano	-6018
agram	-6019
▁//	-6020
▁3:	-6021
pite	-6022
▁aesth	-6023
▁China	-6024
oma	-6025
▁organized	-6026
▁meant	-6027
500	-6028
▁examining	-6029
▁didn	-6030
▁deep	-6031
ray	-6032
▁Sign	-6033
▁couple	-6034
▁Gar	-6035
▁mus	-6036
▁trăm	-6037
▁transport	-6038
▁56	-6039
▁thở	-6040
▁Jo	-6041
▁2000	-6042
▁Java	-6043
▁bò	-6044
▁emb	-6045
▁finding	-6046
▁cựu	-6047
▁sens	-6048
97	-6049
estern	-6050
▁dừng	-6051
/1	-6052
▁vehicle	-6053
oper	-6054
▁shopping	-6055
▁progress	-6056
ols	-6057
irit	-6058
▁countries	-6059
▁bạo	-6060
▁President	-6061
inct	-6062
▁Sen	-6063
▁rein	-6064
▁đai	-6065
▁published	-6066
IA	-6067
▁cơn	-6068
▁Thương	-6069
▁Develop	-6070
▁Location	-6071
▁chay	-6072
▁Wil	-6073
ias	-6074
▁[...].	-6075
▁sports	-6076
▁Ins	-6077
▁USA	-6078
▁lãm	-6079
▁designs	-6080
▁reduce	-6081
▁cars	-6082
▁holiday	-6083
LE	-6084
▁Vict	-6085
▁Elect	-6086
▁Educ	-6087
▁?	-6088
▁cú	-6089
leg	-6090
▁sợi	-6091
▁20.	-6092
arter	-6093
▁potentially	-6094
0)	-6095
▁rout	-6096
▁requires	-6097
▁nỗi	-6098
▁coffee	-6099
▁Related	-6100
▁lãng	-6101
▁sô	-6102
▁Tính	-6103
▁confirm	-6104
▁supporting	-6105
▁Inf	-6106
▁policy	-6107
▁slic	-6108
▁tật	-6109
▁Wall	-6110
▁giây	-6111
▁Smith	-6112
▁situ	-6113
yan	-6114
▁fans	-6115
ares	-6116
▁Page	-6117
va	-6118
▁General	-6119
▁Nov	-6120
▁lists	-6121
▁section	-6122
▁ru	-6123
▁mẹo	-6124
▁River	-6125
cape	-6126
▁dry	-6127
▁Que	-6128
cos	-6129
▁Pack	-6130
▁giết	-6131
▁Mat	-6132
▁lạ	-6133
▁regul	-6134
▁Lời	-6135
▁prec	-6136
▁hoang	-6137
▁wine	-6138
ears	-6139
▁apples	-6140
set	-6141
ady	-6142
▁Food	-6143
reland	-6144
▁Upd	-6145
▁update	-6146
▁săn	-6147
left	-6148
▁response	-6149
vey	-6150
ategories	-6151
iếc	-6152
▁Bang	-6153
▁establish	-6154
▁Hu	-6155
▁stop	-6156
▁fair	-6157
▁>>	-6158
▁tickets	-6159
▁Blog	-6160
▁woman	-6161
olution	-6162
▁Thay	-6163
▁huyết	-6164
▁mass	-6165
46	-6166
▁healthy	-6167
▁relationships	-6168
▁hor	-6169
RO	-6170
▁million	-6171
rem	-6172
></	-6173
idence	-6174
▁starting	-6175
▁cert	-6176
▁groups	-6177
udd	-6178
▁đeo	-6179
▁send	-6180
▁ảo	-6181
▁~	-6182
▁Vấn	-6183
orial	-6184
▁lower	-6185
▁phấn	-6186
owl	-6187
▁ngựa	-6188
▁Đồng	-6189
▁Und	-6190
▁miêu	-6191
▁Bệnh	-6192
appreci	-6193
▁wrong	-6194
▁arguments	-6195
▁(5	-6196
hop	-6197
▁investment	-6198
▁drink	-6199
▁helpful	-6200
▁outcomes	-6201
▁Series	-6202
▁bird	-6203
▁cart	-6204
asp	-6205
▁block	-6206
▁collabor	-6207
ria	-6208
▁AP	-6209
▁journey	-6210
iques	-6211
chan	-6212
▁Family	-6213
▁consult	-6214
▁narrative	-6215
cil	-6216
bour	-6217
▁Ber	-6218
ancing	-6219
▁chai	-6220
▁Media	-6221
▁delivery	-6222
▁links	-6223
▁Australia	-6224
ctor	-6225
▁engaging	-6226
▁72	-6227
▁quickly	-6228
▁Kn	-6229
▁khủng	-6230
iliar	-6231
▁Roy	-6232
▁Research	-6233
▁mys	-6234
▁Game	-6235
▁Pan	-6236
▁yourself	-6237
tra	-6238
▁Watch	-6239
▁remain	-6240
ouch	-6241
igan	-6242
▁girl	-6243
▁brows	-6244
▁Today	-6245
iller	-6246
▁ge	-6247
▁coach	-6248
▁led	-6249
▁thù	-6250
Những	-6251
▁khúc	-6252
▁separ	-6253
▁Hand	-6254
▁credit	-6255
▁stri	-6256
▁bảy	-6257
▁Week	-6258
▁lost	-6259
itary	-6260
▁relax	-6261
▁Lễ	-6262
▁flowers	-6263
▁primary	-6264
▁Dou	-6265
Phone	-6266
▁sett	-6267
▁sắt	-6268
▁double	-6269
▁Leg	-6270
▁Child	-6271
▁cra	-6272
▁Bảy	-6273
icious	-6274
▁helping	-6275
phone	-6276
▁Cảnh	-6277
▁bờ	-6278
▁updated	-6279
▁pretty	-6280
▁11.	-6281
atory	-6282
erve	-6283
▁shoot	-6284
▁Str	-6285
▁nổ	-6286
▁levels	-6287
▁info	-6288
▁lux	-6289
▁gave	-6290
▁buồn	-6291
▁firm	-6292
▁Lim	-6293
▁fully	-6294
▁Inn	-6295
inger	-6296
▁impress	-6297
▁desire	-6298
▁mệnh	-6299
▁sustain	-6300
▁hous	-6301
▁cắm	-6302
▁attending	-6303
▁Chất	-6304
▁wash	-6305
▁\(	-6306
▁interpre	-6307
▁mòn	-6308
▁door	-6309
▁award	-6310
▁eggs	-6311
▁Community	-6312
▁béo	-6313
▁thang	-6314
▁fabric	-6315
itz	-6316
ius	-6317
works	-6318
odcast	-6319
▁tell	-6320
ifications	-6321
▁Gh	-6322
eta	-6323
▁Thật	-6324
▁treo	-6325
▁isolate	-6326
▁easier	-6327
otions	-6328
▁Louis	-6329
▁partners	-6330
▁đòi	-6331
▁08	-6332
wich	-6333
▁concepts	-6334
▁Have	-6335
ipped	-6336
uth	-6337
▁Nhóm	-6338
41	-6339
****	-6340
ook	-6341
▁fem	-6342
▁admin	-6343
▁analyzed	-6344
ora	-6345
aine	-6346
▁Dương	-6347
▁Aud	-6348
▁Joe	-6349
▁worked	-6350
▁Chiến	-6351
rd	-6352
ấc	-6353
CA	-6354
▁giving	-6355
▁thus	-6356
▁girls	-6357
oster	-6358
▁clearly	-6359
sqrt	-6360
▁satisfaction	-6361
▁guitar	-6362
▁dược	-6363
▁Tre	-6364
▁("	-6365
▁Georg	-6366
alley	-6367
▁tweet	-6368
▁rights	-6369
oons	-6370
▁$\	-6371
itute	-6372
asive	-6373
backs	-6374
▁2007	-6375
▁Press	-6376
▁ven	-6377
▁metal	-6378
▁effectiveness	-6379
3)	-6380
▁chanh	-6381
▁14,	-6382
da	-6383
▁2024	-6384
▁Tiếp	-6385
▁Chris	-6386
▁lẫn	-6387
isode	-6388
▁39	-6389
▁chối	-6390
▁Plan	-6391
▁cấm	-6392
▁poly	-6393
▁Mexico	-6394
▁prob	-6395
▁Make	-6396
ví	-6397
▁obs	-6398
▁statements	-6399
list	-6400
usion	-6401
▁neigh	-6402
▁guid	-6403
▁thổ	-6404
▁symp	-6405
▁07	-6406
▁distrib	-6407
▁discusses	-6408
▁Jose	-6409
/10	-6410
urer	-6411
▁phó	-6412
▁Jeff	-6413
▁Amazon	-6414
free	-6415
▁economy	-6416
▁drug	-6417
▁complet	-6418
▁Jun	-6419
▁William	-6420
icing	-6421
▁Why	-6422
eth	-6423
▁250	-6424
▁Gen	-6425
▁quát	-6426
▁mother	-6427
▁13,	-6428
-9	-6429
▁Bây	-6430
▁HD	-6431
▁NE	-6432
ùy	-6433
▁Author	-6434
▁Wal	-6435
▁mũi	-6436
▁lacks	-6437
▁appropri	-6438
▁listed	-6439
▁ground	-6440
▁poor	-6441
▁Hist	-6442
▁06	-6443
▁Thư	-6444
dom	-6445
▁thùng	-6446
▁giặt	-6447
fast	-6448
▁typ	-6449
▁Team	-6450
▁guy	-6451
▁places	-6452
▁(4	-6453
▁Jenn	-6454
▁lic	-6455
▁dogs	-6456
▁['	-6457
▁nắng	-6458
▁Ken	-6459
▁writer	-6460
BN	-6461
▁Bur	-6462
▁balance	-6463
một	-6464
▁enhance	-6465
▁Lịch	-6466
▁Mot	-6467
ional	-6468
ba	-6469
▁whe	-6470
▁mid	-6471
▁played	-6472
▁entertain	-6473
▁đuổi	-6474
gia	-6475
▁depart	-6476
▁Hải	-6477
▁minute	-6478
▁Áo	-6479
aser	-6480
▁artists	-6481
▁height	-6482
VID	-6483
▁hư	-6484
▁cột	-6485
bd	-6486
▁Thomas	-6487
▁candid	-6488
odes	-6489
▁Android	-6490
ken	-6491
▁Card	-6492
▁enter	-6493
▁cases	-6494
▁exhib	-6495
▁neck	-6496
▁seeking	-6497
▁active	-6498
/201	-6499
▁stories	-6500
▁cultural	-6501
▁organizations	-6502
icip	-6503
▁Nghiên	-6504
▁fan	-6505
▁Giao	-6506
azine	-6507
▁dã	-6508
▁Angeles	-6509
▁reinfor	-6510
▁wanted	-6511
▁convers	-6512
▁giường	-6513
band	-6514
▁Gall	-6515
▁Two	-6516
aries	-6517
▁Pay	-6518
▁Ngân	-6519
order	-6520
▁Features	-6521
▁\[	-6522
▁lâm	-6523
▁64	-6524
inder	-6525
▁kênh	-6526
AG	-6527
▁stra	-6528
▁responsibility	-6529
acity	-6530
▁mảnh	-6531
▁effort	-6532
▁Quỹ	-6533
▁Dem	-6534
bit	-6535
▁informed	-6536
▁eth	-6537
▁Charl	-6538
aded	-6539
▁Là	-6540
▁Paris	-6541
▁sen	-6542
mary	-6543
▁assist	-6544
▁feelings	-6545
▁path	-6546
duced	-6547
▁Ill	-6548
ipes	-6549
▁tri	-6550
itors	-6551
▁Virgin	-6552
▁Hi	-6553
▁lỏng	-6554
yes	-6555
▁late	-6556
ackson	-6557
▁!	-6558
lier	-6559
▁Priv	-6560
▁Link	-6561
rial	-6562
▁dark	-6563
▁Advertis	-6564
▁Ai	-6565
▁campaign	-6566
▁tân	-6567
▁5)	-6568
elle	-6569
▁Scott	-6570
▁nhịp	-6571
▁bia	-6572
di	-6573
▁quite	-6574
atin	-6575
▁existing	-6576
▁trần	-6577
▁depending	-6578
PT	-6579
▁spend	-6580
▁».	-6581
▁moment	-6582
▁thượng	-6583
▁Trái	-6584
▁visitors	-6585
▁đam	-6586
MS	-6587
▁Dân	-6588
▁package	-6589
▁Bank	-6590
▁label	-6591
▁posted	-6592
▁NG	-6593
▁dead	-6594
▁Cast	-6595
▁manner	-6596
▁Ireland	-6597
▁opinions	-6598
▁flex	-6599
ceed	-6600
▁Thể	-6601
men	-6602
▁Brand	-6603
▁Cat	-6604
▁đốt	-6605
▁Men	-6606
▁central	-6607
inary	-6608
▁Hợp	-6609
rosoft	-6610
▁connected	-6611
▁measures	-6612
bu	-6613
▁Most	-6614
pping	-6615
▁Build	-6616
()	-6617
▁Ant	-6618
▁iPhone	-6619
lines	-6620
▁homes	-6621
hotels	-6622
▁196	-6623
▁hãi	-6624
▁que	-6625
▁54	-6626
▁Mult	-6627
▁steel	-6628
▁dọa	-6629
▁bắn	-6630
▁chúc	-6631
▁French	-6632
▁Disc	-6633
▁League	-6634
▁stick	-6635
▁Program	-6636
fit	-6637
▁Mass	-6638
▁Saf	-6639
▁interpreted	-6640
▁appreciation	-6641
▁efficiency	-6642
▁đỉnh	-6643
▁infer	-6644
▁Management	-6645
▁Cup	-6646
itiz	-6647
ốp	-6648
▁%	-6649
▁clo	-6650
▁Màu	-6651
▁Report	-6652
▁cast	-6653
▁Scot	-6654
prise	-6655
▁race	-6656
▁exact	-6657
ented	-6658
▁2011.	-6659
▁outcome	-6660
650	-6661
ycle	-6662
▁Bất	-6663
▁800	-6664
▁mét	-6665
ersey	-6666
▁agree	-6667
ani	-6668
rog	-6669
▁Way	-6670
▁behavior	-6671
▁Atl	-6672
change	-6673
▁advantage	-6674
▁mis	-6675
▁Gir	-6676
used	-6677
▁national	-6678
▁dise	-6679
▁mảng	-6680
▁prepar	-6681
OW	-6682
▁dư	-6683
▁chocol	-6684
edia	-6685
▁vs	-6686
▁greater	-6687
▁gets	-6688
▁caused	-6689
▁\\	-6690
▁recognize	-6691
reek	-6692
icken	-6693
▁earn	-6694
enities	-6695
▁Photo	-6696
▁viễn	-6697
friend	-6698
▁lands	-6699
▁taste	-6700
▁44	-6701
▁Phone	-6702
▁Ta	-6703
illy	-6704
▁growing	-6705
kin	-6706
▁Đặt	-6707
▁Luc	-6708
▁fill	-6709
▁distinct	-6710
top	-6711
▁Matt	-6712
chester	-6713
▁sweet	-6714
den	-6715
unte	-6716
▁đậm	-6717
udget	-6718
▁Hà	-6719
▁Tur	-6720
▁plants	-6721
▁insurance	-6722
▁responsible	-6723
▁stated	-6724
town	-6725
tenance	-6726
▁outdoor	-6727
▁replace	-6728
▁Hen	-6729
▁despite	-6730
▁Spring	-6731
▁brings	-6732
▁wait	-6733
▁đe	-6734
▁Old	-6735
▁Fri	-6736
▁thạch	-6737
▁bá	-6738
▁Next	-6739
▁dán	-6740
▁told	-6741
▁appearance	-6742
▁substant	-6743
agn	-6744
worth	-6745
oston	-6746
wide	-6747
▁Ul	-6748
▁demand	-6749
▁Tay	-6750
▁expected	-6751
ato	-6752
▁Nga	-6753
▁announced	-6754
II	-6755
▁eye	-6756
▁owner	-6757
▁factor	-6758
AY	-6759
mond	-6760
▁menu	-6761
▁discussion	-6762
▁boxes	-6763
▁kiên	-6764
▁Board	-6765
▁não	-6766
▁pu	-6767
▁Den	-6768
▁Yêu	-6769
▁Pop	-6770
ecutive	-6771
▁commitment	-6772
▁dro	-6773
▁sites	-6774
rey	-6775
appy	-6776
▁:.	-6777
▁thiệp	-6778
▁Court	-6779
win	-6780
▁salad	-6781
▁snow	-6782
▁Trên	-6783
opt	-6784
▁Haw	-6785
▁convey	-6786
bing	-6787
▁Box	-6788
nam	-6789
▁Id	-6790
▁Bác	-6791
▁damage	-6792
\)	-6793
aughter	-6794
▁cong	-6795
▁grand	-6796
▁virus	-6797
▁Tham	-6798
emporary	-6799
SP	-6800
ror	-6801
▁Director	-6802
▁85	-6803
▁khoai	-6804
rete	-6805
▁graph	-6806
▁familiar	-6807
▁focused	-6808
2}	-6809
▁xấu	-6810
CO	-6811
iling	-6812
▁Gia	-6813
▁court	-6814
▁Times	-6815
ervation	-6816
▁competitive	-6817
▁reports	-6818
visor	-6819
▁versat	-6820
FL	-6821
▁Đơn	-6822
▁train	-6823
▁Thị	-6824
▁Connect	-6825
▁Ma	-6826
▁experienced	-6827
▁furniture	-6828
▁Education	-6829
her	-6830
▁posts	-6831
erved	-6832
▁vỡ	-6833
▁ten	-6834
RL	-6835
itement	-6836
▁ngô	-6837
▁Viện	-6838
▁Start	-6839
ưỡi	-6840
vinc	-6841
▁practices	-6842
eria	-6843
eless	-6844
▁Win	-6845
▁nut	-6846
▁cotton	-6847
▁sharing	-6848
▁Hum	-6849
▁Squ	-6850
▁videos	-6851
▁serious	-6852
▁resolution	-6853
▁Room	-6854
▁Bước	-6855
▁khuyết	-6856
word	-6857
▁mạc	-6858
▁trọn	-6859
▁hands	-6860
▁Live	-6861
▁tele	-6862
▁Nhiều	-6863
▁Town	-6864
GB	-6865
▁đệm	-6866
▁ức	-6867
▁teams	-6868
VD	-6869
▁dậy	-6870
encing	-6871
active	-6872
▁Cong	-6873
▁ạ	-6874
▁cold	-6875
rawn	-6876
▁explanation	-6877
▁basket	-6878
▁AC	-6879
▁hiến	-6880
▁saw	-6881
▁Nước	-6882
ụi	-6883
▁combined	-6884
▁cờ	-6885
▁studio	-6886
▁accommod	-6887
▁Exper	-6888
▁estate	-6889
sych	-6890
▁phrases	-6891
▁Tour	-6892
▁cups	-6893
▁240	-6894
▁tou	-6895
▁Fun	-6896
▁dọc	-6897
▁ngang	-6898
vi	-6899
▁Martin	-6900
{1	-6901
▁ương	-6902
▁Cục	-6903
▁locations	-6904
▁selling	-6905
encies	-6906
▁xạ	-6907
0.000	-6908
ucks	-6909
▁exerc	-6910
etail	-6911
▁Quảng	-6912
▁songs	-6913
▁Jackson	-6914
▁bedroom	-6915
▁Hotels	-6916
▁rain	-6917
▁topics	-6918
▁political	-6919
▁04	-6920
▁Xe	-6921
▁uy	-6922
▁occur	-6923
▁handle	-6924
RA	-6925
▁Chiều	-6926
▁jobs	-6927
▁hang	-6928
porate	-6929
▁khớp	-6930
▁Bi	-6931
▁Van	-6932
▁bạch	-6933
▁xâm	-6934
▁Public	-6935
▁weigh	-6936
——	-6937
▁Quan	-6938
▁Vin	-6939
▁Central	-6940
▁Spe	-6941
▁contr	-6942
▁làn	-6943
▁appropriate	-6944
gl	-6945
▁System	-6946
erap	-6947
weight	-6948
▁trail	-6949
▁fine	-6950
▁patient	-6951
▁Person	-6952
xi	-6953
▁smart	-6954
▁decided	-6955
▁Lee	-6956
ura	-6957
▁leads	-6958
kins	-6959
nge	-6960
▁Fall	-6961
▁chì	-6962
▁nha	-6963
▁tỏi	-6964
uing	-6965
▁Follow	-6966
▁equal	-6967
▁protection	-6968
▁Valley	-6969
▁Stat	-6970
▁imag	-6971
▁Tình	-6972
▁measure	-6973
▁schools	-6974
','	-6975
▁secure	-6976
zen	-6977
rest	-6978
eget	-6979
▁thói	-6980
▁reasonable	-6981
▁oxy	-6982
▁tail	-6983
illage	-6984
▁window	-6985
▁4:	-6986
▁trưa	-6987
▁almost	-6988
▁compared	-6989
▁library	-6990
▁nhé	-6991
▁Steve	-6992
▁15.	-6993
▁names	-6994
▁mãn	-6995
▁files	-6996
▁Hear	-6997
úy	-6998
▁váy	-6999
▁Bed	-7000
▁seconds	-7001
igr	-7002
▁Ke	-7003
▁shape	-7004
▁tán	-7005
▁Head	-7006
isa	-7007
▁Gal	-7008
asure	-7009
rote	-7010
▁creates	-7011
▁Then	-7012
▁ngọn	-7013
▁immedi	-7014
sic	-7015
▁filter	-7016
▁Jon	-7017
cap	-7018
ampions	-7019
▁painting	-7020
▁lưng	-7021
▁Thanh	-7022
▁oz	-7023
arch	-7024
rael	-7025
▁Prem	-7026
▁Who	-7027
Gi	-7028
▁brown	-7029
▁cẩn	-7030
itamin	-7031
TH	-7032
▁Orig	-7033
▁Engine	-7034
▁thuần	-7035
asse	-7036
▁bul	-7037
▁lưỡng	-7038
▁identity	-7039
▁Penn	-7040
▁Trước	-7041
▁Fort	-7042
▁devices	-7043
alog	-7044
▁People	-7045
emon	-7046
▁adding	-7047
antic	-7048
▁trees	-7049
▁cabin	-7050
▁thép	-7051
▁End	-7052
unning	-7053
ocr	-7054
ênh	-7055
/8	-7056
▁xuân	-7057
▁cream	-7058
obe	-7059
▁danger	-7060
/2024	-7061
▁Cập	-7062
arrow	-7063
ologies	-7064
▁carry	-7065
▁Ver	-7066
▁Bảng	-7067
PA	-7068
79	-7069
▁sets	-7070
istry	-7071
▁50%	-7072
▁ounces	-7073
▁quên	-7074
▁population	-7075
iams	-7076
▁khuẩn	-7077
▁asked	-7078
▁creat	-7079
ste	-7080
ronic	-7081
▁cas	-7082
▁forum	-7083
annel	-7084
Script	-7085
▁quyên	-7086
ga	-7087
▁bags	-7088
▁Available	-7089
irts	-7090
▁mực	-7091
▁Steph	-7092
▁Learn	-7093
▁RE	-7094
▁numbers	-7095
icated	-7096
▁upon	-7097
https	-7098
▁availability	-7099
▁20%	-7100
▁developing	-7101
abit	-7102
▁bão	-7103
emb	-7104
▁persuasive	-7105
$,	-7106
▁ord	-7107
▁wearing	-7108
holder	-7109
▁conduct	-7110
▁adjust	-7111
▁science	-7112
▁Richard	-7113
▁Job	-7114
▁Ep	-7115
▁ur	-7116
eline	-7117
▁catch	-7118
▁batter	-7119
▁willing	-7120
▁independ	-7121
▁00	-7122
anna	-7123
▁Mu	-7124
▁kịp	-7125
iced	-7126
▁nét	-7127
▁95	-7128
▁hưu	-7129
SA	-7130
▁button	-7131
▁Ltd	-7132
▁Vi	-7133
<<	-7134
▁Tem	-7135
▁Ros	-7136
▁mach	-7137
▁sleep	-7138
▁rác	-7139
▁instructions	-7140
▁powerful	-7141
ộm	-7142
amond	-7143
▁guarant	-7144
lee	-7145
▁Emp	-7146
!!!	-7147
văn	-7148
▁tiêm	-7149
▁subtract	-7150
▁Like	-7151
▁dao	-7152
▁Tri	-7153
▁Name	-7154
taining	-7155
▁golf	-7156
yright	-7157
▁heat	-7158
▁cán	-7159
▁prop	-7160
▁relation	-7161
▁described	-7162
▁arri	-7163
look	-7164
▁gra	-7165
▁rates	-7166
▁wonderful	-7167
▁Ash	-7168
▁properties	-7169
▁Made	-7170
▁promote	-7171
ructured	-7172
▁announce	-7173
▁hyd	-7174
▁advantages	-7175
▁spread	-7176
▁technical	-7177
ym	-7178
osition	-7179
arn	-7180
▁sem	-7181
▁52	-7182
▁_	-7183
▁completed	-7184
ublic	-7185
▁station	-7186
ỉa	-7187
▁tướng	-7188
intage	-7189
▁Chin	-7190
▁solid	-7191
▁Nghệ	-7192
▁bathroom	-7193
▁san	-7194
▁Association	-7195
oda	-7196
Ar	-7197
umin	-7198
▁Stand	-7199
ím	-7200
các	-7201
▁reve	-7202
▁shared	-7203
edy	-7204
▁thuẫn	-7205
▁ghé	-7206
▁remember	-7207
▁pair	-7208
▁den	-7209
▁090	-7210
▁Access	-7211
▁chảo	-7212
▁Ol	-7213
▁Boston	-7214
▁stress	-7215
▁England	-7216
▁status	-7217
ella	-7218
▁ném	-7219
▁partner	-7220
▁lau	-7221
Cl	-7222
▁tur	-7223
▁competition	-7224
▁prefer	-7225
▁iP	-7226
iration	-7227
▁nhàng	-7228
▁craft	-7229
asts	-7230
▁calcul	-7231
▁Obama	-7232
ennis	-7233
▁sứ	-7234
ario	-7235
́t	-7236
▁emerg	-7237
20.	-7238
▁shoes	-7239
MA	-7240
▁2022	-7241
▁Lạp	-7242
▁lệch	-7243
▁convenience	-7244
▁Chu	-7245
ourses	-7246
▁fight	-7247
▁Map	-7248
esome	-7249
▁reported	-7250
>.	-7251
-12	-7252
▁discover	-7253
▁mắn	-7254
aks	-7255
▁models	-7256
▁welcome	-7257
▁parking	-7258
▁plus	-7259
aph	-7260
ested	-7261
▁Mức	-7262
Không	-7263
▁nấm	-7264
▁Quest	-7265
▁49	-7266
▁sole	-7267
▁annual	-7268
▁incor	-7269
anges	-7270
lands	-7271
▁passion	-7272
▁rent	-7273
▁360	-7274
▁Sarah	-7275
650.	-7276
▁Ok	-7277
ointment	-7278
▁reliability	-7279
▁trào	-7280
bur	-7281
▁accuracy	-7282
can	-7283
▁DC	-7284
▁Police	-7285
Com	-7286
imensions	-7287
▁kil	-7288
▁trade	-7289
▁Andrew	-7290
orrow	-7291
▁dứt	-7292
▁repl	-7293
▁Clin	-7294
▁15,	-7295
ướt	-7296
▁master	-7297
▁overview	-7298
structured	-7299
10.	-7300
rim	-7301
▁animal	-7302
=63287&	-7303
bdetail	-7304
▁IT	-7305
▁therefore	-7306
made	-7307
▁occas	-7308
▁British	-7309
▁wild	-7310
▁concerns	-7311
kg	-7312
▁Model	-7313
▁thanks	-7314
▁shipping	-7315
IG	-7316
▁kia	-7317
NN	-7318
▁Đội	-7319
▁tráng	-7320
ati	-7321
▁client	-7322
IF	-7323
▁thoughts	-7324
▁Nguyên	-7325
▁Welcome	-7326
▁Viết	-7327
▁Cop	-7328
▁thôn	-7329
fin	-7330
▁Rest	-7331
▁agre	-7332
________________	-7333
▁origin	-7334
▁2010.	-7335
▁tables	-7336
99.	-7337
icine	-7338
rome	-7339
▁cross	-7340
▁sav	-7341
Re	-7342
87	-7343
;.	-7344
▁emotions	-7345
▁reput	-7346
▁tụ	-7347
▁yellow	-7348
▁trầm	-7349
▁huyện	-7350
▁Support	-7351
Read	-7352
▁engage	-7353
▁leaves	-7354
▁Organ	-7355
▁increasing	-7356
LA	-7357
▁Net	-7358
/200	-7359
andy	-7360
▁2006	-7361
overy	-7362
hips	-7363
uting	-7364
▁chợ	-7365
▁drawbacks	-7366
lywood	-7367
It	-7368
ault	-7369
▁Virginia	-7370
▁nâu	-7371
▁techniques	-7372
▁Little	-7373
▁46	-7374
▁Laur	-7375
▁consideration	-7376
▁syn	-7377
▁Mối	-7378
▁ft	-7379
thus	-7380
▁spirit	-7381
▁Sinh	-7382
▁tall	-7383
▁Microsoft	-7384
▁strategies	-7385
▁payment	-7386
▁bey	-7387
▁friendly	-7388
▁43	-7389
▁updates	-7390
▁bụi	-7391
vin	-7392
▁net	-7393
▁structured	-7394
▁việt	-7395
bes	-7396
▁capital	-7397
LS	-7398
▁160	-7399
ali	-7400
▁Ari	-7401
berry	-7402
▁aff	-7403
▁giấc	-7404
▁cậu	-7405
▁indicating	-7406
▁Bet	-7407
▁LED	-7408
▁changing	-7409
▁persuade	-7410
▁ác	-7411
▁Sports	-7412
ốm	-7413
▁lãi	-7414
amps	-7415
▁decrease	-7416
istrict	-7417
water	-7418
▁interview	-7419
edom	-7420
▁perce	-7421
abilities	-7422
▁Second	-7423
▁Mọi	-7424
.).	-7425
▁choosing	-7426
▁Columb	-7427
89	-7428
uries	-7429
▁chocolate	-7430
▁tow	-7431
▁Indian	-7432
lymp	-7433
▁European	-7434
/12	-7435
▁0909.	-7436
▁rules	-7437
craft	-7438
▁Gra	-7439
▁Hard	-7440
▁hùng	-7441
▁Const	-7442
▁beyond	-7443
tery	-7444
rugg	-7445
▁amenities	-7446
ưởi	-7447
▁Fair	-7448
650</	-7449
▁apart	-7450
650.650</	-7451
▁0909.650.650</	-7452
▁discussing	-7453
▁Mid	-7454
▁Buy	-7455
▁pros	-7456
▁q	-7457
▁xay	-7458
▁Walk	-7459
▁Website	-7460
▁Source	-7461
▁Jac	-7462
▁Fed	-7463
▁JavaScript	-7464
▁trà	-7465
▁participate	-7466
▁Term	-7467
▁Cook	-7468
▁Meet	-7469
▁classes	-7470
ees	-7471
▁situations	-7472
▁Shop	-7473
▁Doanh	-7474
▁Ell	-7475
▁Divid	-7476
▁keeping	-7477
▁conference	-7478
▁score	-7479
người	-7480
▁Women	-7481
▁facilities	-7482
▁Stock	-7483
▁lũ	-7484
▁Rh	-7485
▁attempting	-7486
▁prin	-7487
▁Council	-7488
▁stuff	-7489
▁sizes	-7490
▁Charles	-7491
▁Social	-7492
▁applied	-7493
▁thank	-7494
▁historical	-7495
iệ	-7496
▁har	-7497
▁mâu	-7498
▁1.5	-7499
▁adds	-7500
▁Take	-7501
▁ga	-7502
▁compar	-7503
▁Offic	-7504
1-	-7505
ewel	-7506
▁Bas	-7507
▁(9	-7508
........	-7509
▁chấn	-7510
▁lót	-7511
▁college	-7512
ews	-7513
▁Mov	-7514
▁wrote	-7515
life	-7516
▁finished	-7517
▁ap	-7518
▁mist	-7519
▁sugar	-7520
met	-7521
▁dining	-7522
cean	-7523
▁Tùy	-7524
enty	-7525
▁spa	-7526
▁Hot	-7527
▁changed	-7528
/2023	-7529
An	-7530
ostal	-7531
▁retail	-7532
▁purposes	-7533
▁closed	-7534
reme	-7535
▁MP	-7536
▁Jess	-7537
www	-7538
▁Xu	-7539
▁winter	-7540
▁plot	-7541
▁schedule	-7542
▁Kỹ	-7543
▁saying	-7544
▁Material	-7545
▁Cả	-7546
▁mer	-7547
▁Requ	-7548
ker	-7549
▁subjective	-7550
cont	-7551
aud	-7552
Qu	-7553
▁Nói	-7554
▁xứ	-7555
▁chẩn	-7556
▁Williams	-7557
ja	-7558
ademic	-7559
▁Beaut	-7560
▁cleaning	-7561
▁peace	-7562
▁moving	-7563
▁pix	-7564
▁acknowledge	-7565
▁Âm	-7566
rick	-7567
▁chăn	-7568
ryst	-7569
▁swim	-7570
yal	-7571
▁Johnson	-7572
▁clin	-7573
▁drawn	-7574
▁trục	-7575
mitted	-7576
▁cưng	-7577
DA	-7578
▁tam	-7579
▁professionals	-7580
▁Lang	-7581
▁attack	-7582
▁Israel	-7583
▁Without	-7584
▁muỗng	-7585
▁runs	-7586
▁Disney	-7587
▁slices	-7588
▁conclusions	-7589
▁Yes	-7590
▁degree	-7591
izz	-7592
▁motiv	-7593
▁Master	-7594
▁joy	-7595
▁produce	-7596
OP	-7597
▁assistance	-7598
erem	-7599
▁dat	-7600
anted	-7601
▁dãy	-7602
▁Email	-7603
estyle	-7604
▁bur	-7605
.....	-7606
▁Indust	-7607
▁Sus	-7608
▁Die	-7609
▁spot	-7610
▁Cao	-7611
▁clothing	-7612
pha	-7613
ansas	-7614
▁Country	-7615
▁temperature	-7616
oration	-7617
▁feedback	-7618
▁Carolina	-7619
▁straight	-7620
ifically	-7621
▁loved	-7622
▁innovative	-7623
▁Giáng	-7624
▁Nhiệm	-7625
▁developed	-7626
ometimes	-7627
▁2020.	-7628
▁tràn	-7629
▁attempts	-7630
▁bê	-7631
▁tuệ	-7632
▁COVID	-7633
lim	-7634
▁shot	-7635
▁opening	-7636
▁Note	-7637
asting	-7638
▁football	-7639
▁AS	-7640
▁Kat	-7641
ýt	-7642
/7	-7643
▁Dar	-7644
▁Policy	-7645
▁isn	-7646
▁implying	-7647
▁khói	-7648
▁ghép	-7649
))	-7650
▁category	-7651
▁ring	-7652
▁MI	-7653
▁trôi	-7654
ealand	-7655
▁military	-7656
bi	-7657
▁pred	-7658
▁Chứng	-7659
▁applic	-7660
▁explains	-7661
▁maintenance	-7662
▁20,	-7663
▁proud	-7664
▁everyday	-7665
15.	-7666
ocket	-7667
▁standards	-7668
tức	-7669
▁Medical	-7670
▁Ten	-7671
▁Carl	-7672
▁Daniel	-7673
▁chuyền	-7674
▁novel	-7675
▁chén	-7676
.’	-7677
▁bank	-7678
omin	-7679
OC	-7680
rees	-7681
▁creativity	-7682
▁ngẫu	-7683
▁Santa	-7684
▁ounce	-7685
▁concrete	-7686
▁gỡ	-7687
▁rise	-7688
Pro	-7689
▁mini	-7690
▁smooth	-7691
▁rat	-7692
▁unit	-7693
▁Soft	-7694
▁shown	-7695
aven	-7696
▁boys	-7697
tha	-7698
▁SP	-7699
▁jack	-7700
▁however	-7701
▁xong	-7702
▁KH	-7703
▁core	-7704
apter	-7705
high	-7706
▁Wild	-7707
▁leather	-7708
TA	-7709
▁Ray	-7710
▁58	-7711
▁AR	-7712
ivil	-7713
▁MD	-7714
▁plug	-7715
▁fear	-7716
▁electric	-7717
ittee	-7718
▁stores	-7719
▁axit	-7720
▁silver	-7721
▁Ave	-7722
▁mail	-7723
cho	-7724
▁nothing	-7725
▁older	-7726
▁profile	-7727
▁authority	-7728
▁(0	-7729
▁entertainment	-7730
ùi	-7731
▁budget	-7732
▁achieved	-7733
▁Sn	-7734
▁tốn	-7735
though	-7736
▁96	-7737
▁ice	-7738
▁Chào	-7739
▁Cond	-7740
olk	-7741
▁medium	-7742
▁McC	-7743
▁Night	-7744
▁apartment	-7745
▁Category	-7746
▁gián	-7747
▁Travel	-7748
▁colour	-7749
▁scen	-7750
▁tần	-7751
▁hosting	-7752
▁motor	-7753
fe	-7754
▁Hàng	-7755
▁butter	-7756
▁canh	-7757
▁Data	-7758
▁khẩn	-7759
▁supply	-7760
OU	-7761
▁lines	-7762
▁communities	-7763
▁traffic	-7764
▁conclude	-7765
PM	-7766
eld	-7767
▁khiếu	-7768
QĐ	-7769
▁Science	-7770
▁thợ	-7771
zil	-7772
▁16,	-7773
▁Under	-7774
▁offic	-7775
thent	-7776
▁evening	-7777
▁fant	-7778
▁veget	-7779
▁Cost	-7780
▁Drive	-7781
▁Development	-7782
▁2023	-7783
jo	-7784
▁architect	-7785
▁residents	-7786
▁frequ	-7787
▁vĩ	-7788
▁born	-7789
▁quầy	-7790
▁spring	-7791
▁strugg	-7792
▁Weight	-7793
▁Games	-7794
▁Jones	-7795
▁túy	-7796
▁mây	-7797
lah	-7798
asks	-7799
ept	-7800
:**	-7801
▁pal	-7802
▁presenting	-7803
like	-7804
istant	-7805
▁Silver	-7806
▁rich	-7807
▁Chinese	-7808
Sp	-7809
▁MS	-7810
▁diverse	-7811
▁;	-7812
▁father	-7813
ila	-7814
▁Network	-7815
ẫm	-7816
▁PDF	-7817
▁rev	-7818
▁manage	-7819
▁driver	-7820
▁nhắm	-7821
▁units	-7822
▁cancer	-7823
▁Garden	-7824
▁boy	-7825
▁Need	-7826
car	-7827
▁approx	-7828
▁bottom	-7829
▁Farm	-7830
▁giáp	-7831
▁citiz	-7832
▁Proper	-7833
▁Ra	-7834
▁Hom	-7835
▁birthday	-7836
OD	-7837
bre	-7838
bury	-7839
atrix	-7840
▁highest	-7841
▁bó	-7842
▁advance	-7843
▁util	-7844
▁visiting	-7845
và	-7846
▁pressure	-7847
onn	-7848
▁(6	-7849
▁(6)	-7850
▁Brook	-7851
▁covered	-7852
uit	-7853
▁Đúng	-7854
CD	-7855
▁Mir	-7856
▁Library	-7857
▁III	-7858
▁khen	-7859
▁Sou	-7860
angle	-7861
▁surrounding	-7862
▁entry	-7863
oz	-7864
▁sôi	-7865
ịn	-7866
▁stars	-7867
▁mission	-7868
▁reality	-7869
▁listing	-7870
▁Ter	-7871
▁milk	-7872
una	-7873
▁volunte	-7874
▁urg	-7875
▁Coll	-7876
arrant	-7877
pet	-7878
▁Kế	-7879
andom	-7880
▁ath	-7881
1',	-7882
▁Place	-7883
▁cooking	-7884
▁Georgia	-7885
being	-7886
▁nhượng	-7887
▁Olymp	-7888
▁charge	-7889
▁Dub	-7890
▁hiếm	-7891
▁Dog	-7892
▁Lind	-7893
▁đàm	-7894
▁cổng	-7895
▁18,	-7896
▁session	-7897
▁Centre	-7898
▁format	-7899
▁Lin	-7900
▁Help	-7901
▁objective	-7902
▁Ford	-7903
▁browser	-7904
▁ép	-7905
▁Nick	-7906
▁slee	-7907
▁Spec	-7908
▁Mus	-7909
province	-7910
▁Tiền	-7911
▁đếm	-7912
▁Hỗ	-7913
▁cuộn	-7914
▁Michigan	-7915
▁tàn	-7916
▁Hon	-7917
▁nav	-7918
apers	-7919
▁Chiếc	-7920
▁Dividing	-7921
▁mẻ	-7922
▁determining	-7923
▁nại	-7924
alo	-7925
▁respond	-7926
cover	-7927
▁Rose	-7928
▁câ	-7929
▁Ha	-7930
▁styles	-7931
▁referring	-7932
irable	-7933
▁ship	-7934
uten	-7935
▁tag	-7936
▁brought	-7937
.</	-7938
▁nhẫn	-7939
▁móc	-7940
itan	-7941
▁Expl	-7942
scribe	-7943
yst	-7944
▁Zealand	-7945
▁Francisco	-7946
▁Ryan	-7947
.<	-7948
▁Arts	-7949
▁named	-7950
▁Bởi	-7951
▁serving	-7952
▁math	-7953
▁Af	-7954
▁drop	-7955
▁ir	-7956
▁PS	-7957
▁cell	-7958
▁thánh	-7959
▁installation	-7960
▁judg	-7961
▁street	-7962
eller	-7963
▁fat	-7964
▁tím	-7965
▁47	-7966
▁probably	-7967
▁190	-7968
▁error	-7969
▁Tag	-7970
▁Định	-7971
▁trội	-7972
▁hô	-7973
▁marbles	-7974
▁contemporary	-7975
oto	-7976
▁flow	-7977
▁prepared	-7978
▁kín	-7979
▁DVD	-7980
ision	-7981
abled	-7982
▁hước	-7983
▁Mer	-7984
▁Plus	-7985
▁failure	-7986
▁unst	-7987
▁Trình	-7988
▁radio	-7989
▁attractive	-7990
▁2008.	-7991
▁mạn	-7992
2-	-7993
▁bát	-7994
▁Based	-7995
what	-7996
▁lường	-7997
▁đà	-7998
▁Giới	-7999
vincing	-8000
achel	-8001
▁usually	-8002
▁interests	-8003
Tube	-8004
orry	-8005
▁Chúc	-8006
▁established	-8007
▁Xác	-8008
▁District	-8009
▁acqu	-8010
▁Oper	-8011
▁Lab	-8012
▁Ball	-8013
osen	-8014
▁served	-8015
▁(19	-8016
▁dinner	-8017
▁scored	-8018
▁followed	-8019
▁gallon	-8020
▁mental	-8021
▁limitations	-8022
▁AD	-8023
itution	-8024
force	-8025
▁ton	-8026
▁Ca	-8027
raction	-8028
▁99	-8029
▁optim	-8030
cu	-8031
▁chem	-8032
▁Bul	-8033
▁lỡ	-8034
▁upgr	-8035
▁bì	-8036
▁AL	-8037
▁courses	-8038
▁2005	-8039
▁asking	-8040
▁delicious	-8041
▁Digital	-8042
▁Đặc	-8043
▁2009.	-8044
▁choices	-8045
▁tab	-8046
▁1/3	-8047
▁According	-8048
days	-8049
▁10%	-8050
▁vehicles	-8051
areness	-8052
pected	-8053
▁rational	-8054
▁ju	-8055
▁acknowledges	-8056
▁Cas	-8057
ilton	-8058
▁Comment	-8059
▁Sky	-8060
▁tông	-8061
▁Contin	-8062
▁expand	-8063
▁Ven	-8064
▁Tags	-8065
▁studies	-8066
▁letter	-8067
▁Hor	-8068
▁insights	-8069
▁Event	-8070
ducing	-8071
▁lấp	-8072
bar	-8073
amsung	-8074
▁yard	-8075
▁produced	-8076
▁dedicated	-8077
▁Na	-8078
aya	-8079
▁chăng	-8080
▁vương	-8081
▁Foundation	-8082
sm	-8083
ợt	-8084
▁FL	-8085
essions	-8086
▁Pot	-8087
▁dig	-8088
▁suff	-8089
▁largest	-8090
▁excited	-8091
▁showing	-8092
▁proced	-8093
▁convenient	-8094
Có	-8095
igious	-8096
▁eyes	-8097
▁Instagram	-8098
▁dạ	-8099
▁Đào	-8100
!!.	-8101
▁director	-8102
▁Dòng	-8103
▁mười	-8104
▁Cross	-8105
▁Rất	-8106
▁cake	-8107
▁sea	-8108
▁Tam	-8109
▁fields	-8110
▁stage	-8111
84	-8112
▁Adv	-8113
▁Only	-8114
▁gun	-8115
gu	-8116
▁neighbor	-8117
73	-8118
▁adults	-8119
▁surv	-8120
▁Cung	-8121
▁Marc	-8122
PC	-8123
▁soạn	-8124
▁normal	-8125
▁Area	-8126
▁Happy	-8127
▁capacity	-8128
▁Dev	-8129
▁Western	-8130
86	-8131
▁bụng	-8132
▁dream	-8133
▁winning	-8134
▁eleg	-8135
▁gather	-8136
▁leo	-8137
▁accident	-8138
▁lõi	-8139
▁airport	-8140
▁LA	-8141
▁Mah	-8142
▁17,	-8143
eries	-8144
▁mechan	-8145
▁PA	-8146
Fi	-8147
case	-8148
ÔNG	-8149
▁Ohio	-8150
▁bọc	-8151
▁bright	-8152
▁Studio	-8153
▁Vườn	-8154
▁promoting	-8155
▁copy	-8156
▁Lớp	-8157
▁trends	-8158
▁phẳng	-8159
loom	-8160
▁SU	-8161
REE	-8162
▁phông	-8163
FC	-8164
▁compl	-8165
/100)	-8166
▁Low	-8167
gins	-8168
▁climate	-8169
evin	-8170
▁hỏa	-8171
▁submit	-8172
▁figure	-8173
▁GI	-8174
▁14.	-8175
▁19,	-8176
▁điền	-8177
▁13.	-8178
aling	-8179
▁dance	-8180
▁Ảnh	-8181
writ	-8182
▁push	-8183
▁scene	-8184
▁bill	-8185
▁registered	-8186
▁liu	-8187
▁Scotland	-8188
▁privacy	-8189
esterday	-8190
strong	-8191
▁disease	-8192
▁listen	-8193
▁Summer	-8194
/2021	-8195
orable	-8196
▁len	-8197
▁meal	-8198
▁pen	-8199
▁slow	-8200
▁Church	-8201
▁dâu	-8202
▁beliefs	-8203
▁liter	-8204
▁affordable	-8205
▁Bánh	-8206
▁lê	-8207
▁fold	-8208
▁hospital	-8209
▁Daily	-8210
inem	-8211
▁rào	-8212
▁Dur	-8213
elines	-8214
▁plastic	-8215
}}	-8216
abeth	-8217
~~	-8218
▁Young	-8219
▁skill	-8220
▁History	-8221
▁Ju	-8222
▁Bao	-8223
▁Land	-8224
▁Hành	-8225
▁Jason	-8226
▁khoác	-8227
▁Kent	-8228
▁seek	-8229
▁ride	-8230
▁generate	-8231
/2)	-8232
▁Cro	-8233
endar	-8234
▁MA	-8235
▁phiêu	-8236
▁allowed	-8237
▁Wi	-8238
▁ngu	-8239
▁Ap	-8240
▁EU	-8241
▁Writ	-8242
sin	-8243
▁element	-8244
sites	-8245
57	-8246
▁Print	-8247
iences	-8248
▁URL	-8249
▁dollars	-8250
▁Hoàng	-8251
▁khoảnh	-8252
▁chẽ	-8253
▁vở	-8254
\]	-8255
▁symb	-8256
▁completely	-8257
iation	-8258
▁bù	-8259
▁relat	-8260
cdot	-8261
▁ván	-8262
ster	-8263
▁bể	-8264
▁construct	-8265
▁nồng	-8266
▁brands	-8267
▁100.	-8268
yt	-8269
/11	-8270
▁nor	-8271
▁YouTube	-8272
▁PR	-8273
▁bike	-8274
▁refr	-8275
▁Victoria	-8276
▁côn	-8277
▁nghèo	-8278
▁Mi	-8279
▁thoái	-8280
▁involve	-8281
▁strengthen	-8282
▁advent	-8283
▁Xây	-8284
▁enthus	-8285
▁Earth	-8286
▁Pak	-8287
vely	-8288
bec	-8289
▁confidence	-8290
▁sạc	-8291
▁multip	-8292
ENT	-8293
▁gallons	-8294
{1}{	-8295
oi	-8296
▁kit	-8297
▁(200	-8298
▁chat	-8299
▁generalization	-8300
▁preferences	-8301
forts	-8302
▁Bath	-8303
This	-8304
▁trốn	-8305
▁Published	-8306
▁sưởi	-8307
▁shap	-8308
▁chép	-8309
▁Store	-8310
▁buýt	-8311
alse	-8312
vas	-8313
miss	-8314
▁đừng	-8315
▁purchasing	-8316
AA	-8317
mc	-8318
▁lô	-8319
▁buying	-8320
▁paid	-8321
▁rank	-8322
antly	-8323
▁experts	-8324
▁blood	-8325
lock	-8326
pton	-8327
athan	-8328
▁clar	-8329
▁Ư	-8330
ef	-8331
▁hầm	-8332
▁passed	-8333
▁task	-8334
▁Jam	-8335
▁accessible	-8336
▁terr	-8337
ụt	-8338
▁cai	-8339
osure	-8340
▁Look	-8341
▁expression	-8342
▁Party	-8343
▁surface	-8344
▁attach	-8345
iate	-8346
▁repair	-8347
▁lunch	-8348
▁Technology	-8349
▁MB	-8350
▁promotion	-8351
▁Jay	-8352
▁thôi	-8353
▁der	-8354
Al	-8355
▁inh	-8356
▁quarter	-8357
▁nồi	-8358
▁daughter	-8359
▁Mùa	-8360
ướp	-8361
▁Royal	-8362
iter	-8363
▁140	-8364
lyn	-8365
▁articles	-8366
▁Flo	-8367
▁Sale	-8368
▁featuring	-8369
▁Style	-8370
▁Includ	-8371
▁nhở	-8372
▁female	-8373
▁healthcare	-8374
▁UN	-8375
pan	-8376
▁cloud	-8377
▁cát	-8378
▁species	-8379
▁Ital	-8380
▁Through	-8381
▁Collection	-8382
ups	-8383
iti	-8384
▁rh	-8385
actions	-8386
▁specifically	-8387
▁tang	-8388
▁jump	-8389
▁Hou	-8390
▁cute	-8391
▁Guide	-8392
▁yoga	-8393
▁external	-8394
▁roles	-8395
pret	-8396
▁discount	-8397
▁57	-8398
aters	-8399
▁Cra	-8400
▁Jane	-8401
▁Fish	-8402
▁owners	-8403
ainless	-8404
▁súp	-8405
709	-8406
▁Kit	-8407
ternoon	-8408
▁Run	-8409
▁sport	-8410
outs	-8411
▁SK	-8412
▁ef	-8413
▁expectations	-8414
nergy	-8415
▁hồn	-8416
▁lab	-8417
▁Institute	-8418
▁10:	-8419
▁Manager	-8420
▁heavy	-8421
▁màng	-8422
▁Phó	-8423
▁xoay	-8424
▁guest	-8425
▁operations	-8426
late	-8427
▁mộc	-8428
▁cay	-8429
roy	-8430
idden	-8431
▁relies	-8432
▁creation	-8433
▁Mua	-8434
▁dàn	-8435
▁podcast	-8436
▁Cửa	-8437
▁mịn	-8438
▁flu	-8439
▁lon	-8440
ordin	-8441
▁flat	-8442
▁beginning	-8443
▁meters	-8444
▁Ram	-8445
▁tried	-8446
▁nation	-8447
']	-8448
▁resource	-8449
▁Season	-8450
▁unstated	-8451
▁nghiện	-8452
▁finally	-8453
rid	-8454
▁consumers	-8455
▁Journal	-8456
▁micro	-8457
▁sister	-8458
▁hòn	-8459
▁File	-8460
▁Current	-8461
CS	-8462
away	-8463
▁Cần	-8464
▁Cred	-8465
icies	-8466
▁Eric	-8467
0000	-8468
▁exciting	-8469
▁110	-8470
▁seven	-8471
ellig	-8472
▁dịp	-8473
bridge	-8474
▁settings	-8475
▁brother	-8476
▁già	-8477
aron	-8478
▁Harr	-8479
▁testing	-8480
được	-8481
aked	-8482
▁versus	-8483
▁Golf	-8484
▁evident	-8485
▁3/4	-8486
zer	-8487
▁Quân	-8488
acc	-8489
uyển	-8490
▁Truyền	-8491
▁DJ	-8492
▁hiên	-8493
Ex	-8494
▁SS	-8495
point	-8496
▁lots	-8497
▁calo	-8498
▁salt	-8499
with	-8500
▁hop	-8501
chi	-8502
▁recommended	-8503
oli	-8504
▁Jersey	-8505
▁movies	-8506
▁Harry	-8507
abase	-8508
▁assume	-8509
gs	-8510
itely	-8511
rier	-8512
▁speaker	-8513
▁Africa	-8514
▁khổng	-8515
▁Merc	-8516
▁therap	-8517
▁Museum	-8518
▁leader	-8519
ctions	-8520
▁teaching	-8521
ện	-8522
▁rom	-8523
▁thọ	-8524
▁nắp	-8525
cost	-8526
▁chair	-8527
▁Register	-8528
▁Global	-8529
▁sam	-8530
▁photography	-8531
uous	-8532
▁Colorado	-8533
▁Son	-8534
▁enjoyed	-8535
▁Tự	-8536
▁fails	-8537
▁Exp	-8538
utt	-8539
▁SE	-8540
59	-8541
▁làng	-8542
onto	-8543
▁gan	-8544
irtual	-8545
▁hcm	-8546
▁windows	-8547
▁Tony	-8548
▁Festival	-8549
▁aim	-8550
▁cheese	-8551
▁movement	-8552
▁16.	-8553
▁watching	-8554
▁sandwich	-8555
hcm	-8556
MP	-8557
▁selected	-8558
▁Sat	-8559
▁giòn	-8560
vention	-8561
aled	-8562
owder	-8563
▁nhạy	-8564
izabeth	-8565
▁khổ	-8566
▁reflection	-8567
math	-8568
▁Hồi	-8569
▁Broad	-8570
▁Trọng	-8571
aire	-8572
▁Bắt	-8573
licit	-8574
▁Small	-8575
▁journal	-8576
▁lồ	-8577
▁xăng	-8578
▁Joseph	-8579
▁severe	-8580
▁Brazil	-8581
▁tension	-8582
orney	-8583
▁transfer	-8584
▁Đưa	-8585
▁introduction	-8586
▁dyn	-8587
▁Brian	-8588
/2022/	-8589
bao	-8590
▁xứng	-8591
▁depend	-8592
▁circum	-8593
▁maximum	-8594
▁gạch	-8595
▁differences	-8596
▁robot	-8597
rowd	-8598
▁France	-8599
▁Lead	-8600
yrics	-8601
▁coin	-8602
▁Bãi	-8603
▁cáp	-8604
▁Records	-8605
▁Foot	-8606
▁quê	-8607
▁switch	-8608
▁Conference	-8609
▁mel	-8610
▁propos	-8611
rig	-8612
▁records	-8613
▁rổ	-8614
▁forms	-8615
▁lam	-8616
▁participants	-8617
▁Hay	-8618
▁versatile	-8619
Te	-8620
▁cloth	-8621
▁artwork	-8622
▁Germ	-8623
▁Test	-8624
▁Radio	-8625
▁je	-8626
▁Supp	-8627
ewelry	-8628
▁restaurants	-8629
iled	-8630
▁lạm	-8631
▁exclusive	-8632
▁Equ	-8633
▁84	-8634
▁wife	-8635
words	-8636
▁fourth	-8637
▁Republic	-8638
oted	-8639
▁NC	-8640
▁Clean	-8641
▁Kevin	-8642
▁Union	-8643
rat	-8644
▁Enjoy	-8645
▁wire	-8646
▁allowing	-8647
▁5:	-8648
▁cương	-8649
▁fruit	-8650
▁Comple	-8651
▁hotels	-8652
▁depth	-8653
▁dịu	-8654
▁Poly	-8655
▁Đừng	-8656
▁chain	-8657
emic	-8658
coh	-8659
▁2021.	-8660
▁ham	-8661
▁diet	-8662
▁phun	-8663
▁inspired	-8664
▁aesthetic	-8665
▁lít	-8666
▁tá	-8667
▁Las	-8668
▁bottle	-8669
^{	-8670
▁cities	-8671
=1	-8672
▁brief	-8673
▁Prot	-8674
begin	-8675
▁lovely	-8676
▁dangerous	-8677
▁wider	-8678
▁chosen	-8679
▁Anal	-8680
Is	-8681
▁Henry	-8682
thentic	-8683
▁rental	-8684
▁Phiên	-8685
▁nearby	-8686
▁Cert	-8687
ãnh	-8688
▁21,	-8689
▁efforts	-8690
books	-8691
▁Saint	-8692
▁themes	-8693
▁clim	-8694
▁ve	-8695
▁overs	-8696
lay	-8697
Điều	-8698
▁filled	-8699
▁citizens	-8700
83	-8701
oween	-8702
▁vong	-8703
▁Select	-8704
▁becoming	-8705
ibilities	-8706
▁Đồ	-8707
▁cash	-8708
▁orders	-8709
▁reputation	-8710
eme	-8711
▁Adam	-8712
idays	-8713
▁USB	-8714
▁Products	-8715
body	-8716
▁Vers	-8717
▁episode	-8718
▁ate	-8719
ordan	-8720
▁chiên	-8721
▁50.	-8722
▁tea	-8723
egas	-8724
▁numer	-8725
▁Item	-8726
umni	-8727
▁initi	-8728
▁injury	-8729
ela	-8730
▁Mobile	-8731
▁rắn	-8732
▁Roll	-8733
▁maintaining	-8734
▁Po	-8735
▁Ur	-8736
ials	-8737
▁huge	-8738
usband	-8739
▁exactly	-8740
▁calls	-8741
▁categories	-8742
▁tank	-8743
▁satisf	-8744
▁Coast	-8745
▁edition	-8746
}.	-8747
▁lou	-8748
▁desirable	-8749
lation	-8750
You	-8751
fish	-8752
ĐT	-8753
▁wal	-8754
rich	-8755
▁lừa	-8756
▁bottles	-8757
EG	-8758
▁awesome	-8759
bro	-8760
▁er	-8761
▁caught	-8762
urd	-8763
▁chánh	-8764
▁popularity	-8765
athy	-8766
▁Hôm	-8767
▁mir	-8768
/2020	-8769
▁festival	-8770
west	-8771
▁basic	-8772
▁Form	-8773
▁Đi	-8774
62	-8775
anging	-8776
▁CN	-8777
inois	-8778
stract	-8779
person	-8780
▁Ly	-8781
▁Visit	-8782
▁Rs	-8783
▁truck	-8784
ngh	-8785
▁Quần	-8786
▁thô	-8787
▁30.	-8788
▁pink	-8789
▁Ron	-8790
▁breakfast	-8791
▁chairs	-8792
▁separate	-8793
▁vitamin	-8794
▁thăng	-8795
▁Bên	-8796
rowse	-8797
iami	-8798
unes	-8799
▁Looking	-8800
những	-8801
▁Fab	-8802
▁Rog	-8803
cons	-8804
▁parties	-8805
ibly	-8806
▁Gro	-8807
utch	-8808
cohol	-8809
▁inclusion	-8810
▁Pass	-8811
▁comparison	-8812
ums	-8813
▁comput	-8814
▁trend	-8815
onda	-8816
▁ages	-8817
▁Tiếng	-8818
▁tựa	-8819
▁substantial	-8820
▁Case	-8821
▁himself	-8822
▁aims	-8823
▁ter	-8824
ifer	-8825
▁Boy	-8826
▁Bec	-8827
▁balls	-8828
▁princip	-8829
▁41	-8830
▁academic	-8831
▁Pac	-8832
▁Cá	-8833
▁backed	-8834
▁tẩy	-8835
zona	-8836
▁Ut	-8837
▁appe	-8838
▁quote	-8839
▁gallery	-8840
enz	-8841
IR	-8842
▁instr	-8843
▁smaller	-8844
▁representation	-8845
▁cats	-8846
xx	-8847
▁penc	-8848
▁luxury	-8849
ources	-8850
▁markets	-8851
▁Khoảng	-8852
▁Image	-8853
▁middle	-8854
▁Where	-8855
▁ahead	-8856
▁spons	-8857
▁thua	-8858
▁doctor	-8859
▁97	-8860
▁cháu	-8861
▁dọn	-8862
▁memories	-8863
ikes	-8864
▁died	-8865
▁famous	-8866
▁collected	-8867
▁98	-8868
▁diệt	-8869
▁Sa	-8870
▁particularly	-8871
▁Ath	-8872
vious	-8873
▁Bad	-8874
▁injuries	-8875
▁Gallery	-8876
▁fuel	-8877
bourne	-8878
▁thr	-8879
▁2004	-8880
▁vacation	-8881
▁fulf	-8882
▁Works	-8883
▁evoke	-8884
cr	-8885
▁30,	-8886
▁Band	-8887
▁Events	-8888
▁Taylor	-8889
▁Pakistan	-8890
▁manufacturer	-8891
▁63	-8892
ira	-8893
▁18.	-8894
▁Pin	-8895
▁fly	-8896
▁excitement	-8897
▁giỏ	-8898
61	-8899
▁tradition	-8900
▁imply	-8901
▁websites	-8902
vo	-8903
▁processes	-8904
tw	-8905
erts	-8906
AB	-8907
▁mac	-8908
▁tia	-8909
▁pump	-8910
▁mỏng	-8911
burgh	-8912
▁leaving	-8913
▁LLC	-8914
▁Brad	-8915
arp	-8916
oom	-8917
▁memory	-8918
▁Thụy	-8919
▁giam	-8920
ylvan	-8921
ostalgia	-8922
▁profit	-8923
▁spl	-8924
asseng	-8925
▁Avenue	-8926
▁swe	-8927
▁introduce	-8928
ima	-8929
▁va	-8930
▁sequ	-8931
▁Society	-8932
omy	-8933
▁remove	-8934
ucky	-8935
MT	-8936
sole	-8937
▁Hope	-8938
▁quant	-8939
PD	-8940
▁involves	-8941
uled	-8942
▁summary	-8943
▁FREE	-8944
▁Award	-8945
▁cống	-8946
▁freedom	-8947
▁spending	-8948
mes	-8949
▁Jud	-8950
ockt	-8951
▁nho	-8952
▁purchased	-8953
▁rub	-8954
▁properly	-8955
enses	-8956
▁Deal	-8957
▁THE	-8958
essor	-8959
▁thả	-8960
▁Tiểu	-8961
▁psych	-8962
▁lộn	-8963
▁matt	-8964
wa	-8965
▁focuses	-8966
▁Paper	-8967
▁battery	-8968
▁Iran	-8969
▁Vòng	-8970
▁afternoon	-8971
▁<<	-8972
PR	-8973
▁susp	-8974
▁spaces	-8975
ademy	-8976
▁disapp	-8977
▁24,	-8978
▁thread	-8979
▁Security	-8980
▁Length	-8981
▁corn	-8982
▁Mess	-8983
olis	-8984
▁lây	-8985
▁Story	-8986
▁force	-8987
▁sustainable	-8988
▁Houston	-8989
▁seeing	-8990
▁advis	-8991
riage	-8992
▁ce	-8993
12.	-8994
▁Rod	-8995
▁Fit	-8996
▁Nhấp	-8997
▁ngưỡng	-8998
▁celebration	-8999
▁Hỏi	-9000
▁Baby	-9001
▁independent	-9002
▁Maria	-9003
▁heard	-9004
▁Friends	-9005
▁Oak	-9006
▁Auto	-9007
▁Local	-9008
▁mạo	-9009
▁quế	-9010
▁Easy	-9011
▁Stan	-9012
trong	-9013
▁affected	-9014
▁Posts	-9015
▁registration	-9016
▁Dave	-9017
▁panel	-9018
▁factual	-9019
▁Bán	-9020
▁Both	-9021
-200	-9022
name	-9023
▁covers	-9024
▁incident	-9025
effect	-9026
▁Children	-9027
adel	-9028
▁evalu	-9029
▁collaboration	-9030
▁Invest	-9031
▁lũng	-9032
▁Greg	-9033
đánh	-9034
aka	-9035
▁shower	-9036
hour	-9037
▁perceived	-9038
▁dire	-9039
▁Pict	-9040
▁tone	-9041
▁bread	-9042
▁SC	-9043
unting	-9044
anny	-9045
icket	-9046
itage	-9047
▁mờ	-9048
▁curr	-9049
▁walking	-9050
▁calories	-9051
▁expensive	-9052
▁bưu	-9053
▁resort	-9054
▁lights	-9055
▁breath	-9056
▁turned	-9057
▁candy	-9058
▁Trò	-9059
▁Energy	-9060
▁concise	-9061
appreciate	-9062
▁Table	-9063
▁Đề	-9064
▁fed	-9065
▁51	-9066
▁Provid	-9067
▁Đạo	-9068
▁194	-9069
real	-9070
rical	-9071
▁hằng	-9072
ợn	-9073
pie	-9074
rance	-9075
stone	-9076
▁đợt	-9077
▁Mill	-9078
▁initially	-9079
▁poll	-9080
▁lifestyle	-9081
night	-9082
58	-9083
ache	-9084
▁xinh	-9085
but	-9086
▁prepare	-9087
dney	-9088
▁tom	-9089
▁guys	-9090
▁bớt	-9091
▁tast	-9092
▁giỏi	-9093
▁BH	-9094
▁repe	-9095
▁piano	-9096
▁desk	-9097
▁BB	-9098
▁Photos	-9099
▁Miami	-9100
▁chicken	-9101
▁thắc	-9102
▁Far	-9103
png	-9104
▁interior	-9105
▁25,	-9106
▁350	-9107
▁rating	-9108
▁Lat	-9109
▁khiêu	-9110
▁plays	-9111
▁sounds	-9112
atically	-9113
▁influence	-9114
▁musical	-9115
▁OS	-9116
▁Fox	-9117
▁centre	-9118
?”.	-9119
▁Hospital	-9120
▁exception	-9121
unn	-9122
▁Pu	-9123
atre	-9124
▁degrees	-9125
▁chở	-9126
equ	-9127
▁advertisement	-9128
▁eight	-9129
▁vua	-9130
▁66	-9131
▁Elizabeth	-9132
▁Many	-9133
sey	-9134
▁cris	-9135
olars	-9136
ador	-9137
▁documents	-9138
▁teacher	-9139
plate	-9140
▁publish	-9141
▁Fund	-9142
tu	-9143
▁dính	-9144
▁solely	-9145
CT	-9146
▁Sách	-9147
▁ngập	-9148
▁truly	-9149
▁Three	-9150
▁Know	-9151
!"	-9152
orter	-9153
▁educational	-9154
▁crafts	-9155
igate	-9156
▁Field	-9157
endo	-9158
yo	-9159
▁viewpoint	-9160
▁TX	-9161
▁ngực	-9162
cing	-9163
▁flavor	-9164
▁Anth	-9165
related	-9166
▁waiting	-9167
▁lin	-9168
lets	-9169
▁bars	-9170
▁Tel	-9171
▁deals	-9172
▁Publish	-9173
EE	-9174
df	-9175
rystal	-9176
74	-9177
▁voice	-9178
▁Nữ	-9179
▁awareness	-9180
▁ngón	-9181
▁nghìn	-9182
▁policies	-9183
3-	-9184
BG	-9185
▁During	-9186
Chúng	-9187
▁receiving	-9188
▁intention	-9189
▁Album	-9190
▁passage	-9191
lam	-9192
▁Admin	-9193
▁rap	-9194
▁6)	-9195
▁basketball	-9196
▁78	-9197
arguments	-9198
▁myself	-9199
▁designer	-9200
▁(10	-9201
▁Rom	-9202
▁cheap	-9203
ylvania	-9204
▁uns	-9205
XH	-9206
▁trou	-9207
▁ignore	-9208
▁Thẻ	-9209
1:	-9210
▁existence	-9211
▁Tele	-9212
▁circumst	-9213
▁thous	-9214
▁Illinois	-9215
▁attrib	-9216
▁SH	-9217
▁placed	-9218
▁Limited	-9219
96	-9220
▁tomat	-9221
▁Very	-9222
estic	-9223
▁Member	-9224
▁manager	-9225
▁Article	-9226
▁Thượng	-9227
afe	-9228
▁husband	-9229
▁roof	-9230
▁leadership	-9231
awa	-9232
pson	-9233
▁(0,	-9234
osis	-9235
▁chàng	-9236
roc	-9237
▁Blu	-9238
▁pull	-9239
▁recognition	-9240
interest	-9241
▁pand	-9242
▁icon	-9243
▁audio	-9244
▁landscape	-9245
▁multi	-9246
▁coverage	-9247
osc	-9248
UN	-9249
▁cảng	-9250
ji	-9251
▁notion	-9252
▁tut	-9253
ko	-9254
▁giấu	-9255
▁department	-9256
▁neighborhood	-9257
▁12:	-9258
▁happen	-9259
▁Once	-9260
CE	-9261
▁Emm	-9262
▁magazine	-9263
▁addressed	-9264
54	-9265
▁unc	-9266
▁Eth	-9267
▁shirt	-9268
▁22,	-9269
▁quãng	-9270
essional	-9271
▁protected	-9272
arranty	-9273
▁fore	-9274
▁eating	-9275
▁Arizona	-9276
▁island	-9277
▁nguyễn	-9278
anned	-9279
arks	-9280
▁Express	-9281
▁Biển	-9282
clear	-9283
▁collective	-9284
▁Italian	-9285
▁Japanese	-9286
▁Champions	-9287
▁Fac	-9288
▁lighting	-9289
▁Columbia	-9290
▁featured	-9291
▁decide	-9292
Press	-9293
▁hứa	-9294
pi	-9295
▁patterns	-9296
▁birds	-9297
▁Info	-9298
haps	-9299
pack	-9300
▁lặng	-9301
▁:).	-9302
▁infr	-9303
oa	-9304
▁Save	-9305
▁Tal	-9306
▁president	-9307
▁Oil	-9308
▁volume	-9309
▁Mountain	-9310
▁Rd	-9311
utral	-9312
▁happiness	-9313
56	-9314
allet	-9315
EST	-9316
▁khoáng	-9317
▁Rub	-9318
▁seat	-9319
ía	-9320
aska	-9321
▁Creek	-9322
▁Halloween	-9323
▁Niger	-9324
ẹt	-9325
▁pharm	-9326
▁workers	-9327
▁Barb	-9328
▁tỏa	-9329
▁Stone	-9330
stein	-9331
▁Diego	-9332
Bl	-9333
▁Their	-9334
▁Sales	-9335
▁Views	-9336
▁consistent	-9337
▁teachers	-9338
▁sort	-9339
▁university	-9340
▁Biên	-9341
709">	-9342
▁cookie	-9343
▁Tỷ	-9344
▁soda	-9345
=63709">	-9346
mcid	-9347
etition	-9348
UT	-9349
▁(1).	-9350
▁fees	-9351
▁starts	-9352
▁Members	-9353
▁advanced	-9354
Con	-9355
▁Ghi	-9356
::	-9357
ocal	-9358
anish	-9359
▁Control	-9360
▁Cur	-9361
mans	-9362
▁personalized	-9363
▁bắp	-9364
▁wid	-9365
▁Chuyên	-9366
▁Point	-9367
▁Thống	-9368
▁bìa	-9369
▁exercise	-9370
px	-9371
▁Ref	-9372
▁south	-9373
letter	-9374
▁gối	-9375
▁phái	-9376
▁grade	-9377
odge	-9378
▁Four	-9379
apore	-9380
▁đố	-9381
▁Cấu	-9382
▁Order	-9383
▁nhiếp	-9384
53	-9385
▁Động	-9386
standing	-9387
week	-9388
UY	-9389
▁kẹp	-9390
▁Josh	-9391
▁operation	-9392
▁busy	-9393
▁Gig	-9394
72	-9395
▁HO	-9396
▁Ox	-9397
▁0,0	-9398
imin	-9399
izer	-9400
▁Tech	-9401
▁vote	-9402
▁Return	-9403
▁flower	-9404
▁income	-9405
▁Middle	-9406
▁examine	-9407
ancer	-9408
▁flight	-9409
▁church	-9410
igned	-9411
▁disp	-9412
tch	-9413
▁NFL	-9414
▁Cart	-9415
undred	-9416
▁jazz	-9417
ulations	-9418
BI	-9419
▁Keep	-9420
iors	-9421
oral	-9422
idential	-9423
▁Steel	-9424
▁Manchester	-9425
▁tasks	-9426
▁cos	-9427
▁balanced	-9428
▁accompl	-9429
▁talent	-9430
▁compat	-9431
▁expressed	-9432
▁facility	-9433
▁operating	-9434
▁AT	-9435
▁regardless	-9436
▁Jordan	-9437
acle	-9438
▁Lao	-9439
▁tailored	-9440
otte	-9441
▁discussed	-9442
▁phổi	-9443
ừu	-9444
▁thiền	-9445
▁tụng	-9446
▁Rick	-9447
▁Ren	-9448
▁presentation	-9449
11.	-9450
▁chuông	-9451
▁univers	-9452
ographic	-9453
If	-9454
▁rũ	-9455
▁lock	-9456
▁Hollywood	-9457
▁boat	-9458
▁restrict	-9459
▁celebrate	-9460
ploy	-9461
▁Mur	-9462
pool	-9463
allas	-9464
▁threat	-9465
-.	-9466
▁sector	-9467
oing	-9468
▁hẹp	-9469
▁Giảm	-9470
angers	-9471
▁raise	-9472
▁Seattle	-9473
76	-9474
▁Đảo	-9475
▁viewers	-9476
▁Cru	-9477
▁onto	-9478
eeth	-9479
▁trăng	-9480
▁vision	-9481
▁xích	-9482
pmatrix	-9483
▁functionality	-9484
▁Phim	-9485
ecd	-9486
toms	-9487
▁Estate	-9488
▁muộn	-9489
▁mỏ	-9490
oln	-9491
▁actual	-9492
▁Kitchen	-9493
▁durability	-9494
▁gam	-9495
▁suggestions	-9496
300	-9497
▁tit	-9498
agen	-9499
▁survey	-9500
quir	-9501
▁Anton	-9502
▁DI	-9503
▁vary	-9504
▁slight	-9505
▁Trail	-9506
adian	-9507
▁revenue	-9508
▁SA	-9509
▁north	-9510
▁xách	-9511
Người	-9512
▁absol	-9513
▁transform	-9514
▁Sound	-9515
▁transportation	-9516
UL	-9517
▁Vegas	-9518
▁Tương	-9519
▁Jr	-9520
▁bồn	-9521
▁chip	-9522
/2021/	-9523
iers	-9524
▁Sẽ	-9525
▁ml	-9526
▁accessories	-9527
▁cater	-9528
ircle	-9529
▁Germany	-9530
▁consumer	-9531
kr	-9532
▁chốt	-9533
▁ensuring	-9534
▁dates	-9535
ulous	-9536
▁Sony	-9537
▁Come	-9538
▁picked	-9539
▁Turn	-9540
▁23,	-9541
print	-9542
▁Address	-9543
lice	-9544
▁CS	-9545
▁crime	-9546
▁Sav	-9547
▁mill	-9548
▁Phục	-9549
▁à	-9550
▁obtain	-9551
rate	-9552
▁gluten	-9553
BTC	-9554
▁đập	-9555
▁lett	-9556
▁đính	-9557
wise	-9558
▁Toronto	-9559
▁Rev	-9560
astructure	-9561
▁sees	-9562
▁Privacy	-9563
▁Chuyển	-9564
▁40%	-9565
▁1,5	-9566
amed	-9567
▁Vịnh	-9568
▁ưa	-9569
▁Cub	-9570
▁đỗ	-9571
omm	-9572
iance	-9573
▁Kelly	-9574
pass	-9575
▁Property	-9576
▁Awards	-9577
▁Fact	-9578
yer	-9579
▁spends	-9580
sk	-9581
▁900	-9582
▁housing	-9583
▁Hoạt	-9584
▁die	-9585
▁appointment	-9586
▁chose	-9587
▁burn	-9588
▁Track	-9589
▁inspiration	-9590
▁Nơi	-9591
▁Lew	-9592
adow	-9593
▁Whe	-9594
▁Queen	-9595
▁seeds	-9596
▁Space	-9597
▁causing	-9598
Un	-9599
▁suc	-9600
wear	-9601
▁surg	-9602
▁Gửi	-9603
▁Mix	-9604
▁Square	-9605
km	-9606
▁28,	-9607
▁rắc	-9608
▁earlier	-9609
▁doors	-9610
30.	-9611
iser	-9612
▁Jean	-9613
▁dishes	-9614
▁flash	-9615
ùm	-9616
▁Training	-9617
▁beer	-9618
▁yesterday	-9619
ami	-9620
▁Recent	-9621
▁definitely	-9622
▁Even	-9623
Bạn	-9624
▁88	-9625
/2018	-9626
▁Level	-9627
▁Sydney	-9628
dale	-9629
++	-9630
lan	-9631
▁scope	-9632
IE	-9633
400	-9634
sylvania	-9635
▁niêm	-9636
▁google	-9637
▁Sea	-9638
▁mỉa	-9639
▁Site	-9640
▁meat	-9641
▁advertising	-9642
▁edge	-9643
▁ồn	-9644
▁interpret	-9645
▁Exc	-9646
▁clip	-9647
▁Bell	-9648
▁Xuất	-9649
▁Def	-9650
▁thick	-9651
▁nở	-9652
▁ticket	-9653
▁arts	-9654
▁facing	-9655
▁funding	-9656
idents	-9657
▁gương	-9658
tôi	-9659
▁iPad	-9660
▁Kids	-9661
friendly	-9662
▁26,	-9663
▁mg	-9664
(1	-9665
▁nhầm	-9666
▁fitness	-9667
▁stylish	-9668
DS	-9669
gers	-9670
▁adult	-9671
▁Lastly	-9672
vy	-9673
▁connections	-9674
inar	-9675
▁fishing	-9676
▁Arm	-9677
inson	-9678
▁Living	-9679
▁11:	-9680
▁buôn	-9681
▁sect	-9682
-11	-9683
▁leaders	-9684
▁organic	-9685
▁recipes	-9686
▁ON	-9687
▁beat	-9688
▁foundation	-9689
▁Ess	-9690
▁:)	-9691
▁Whether	-9692
▁bowl	-9693
▁Entertain	-9694
FA	-9695
▁argues	-9696
▁guidance	-9697
▁manufacturing	-9698
▁diagn	-9699
▁films	-9700
▁xơ	-9701
▁remains	-9702
bell	-9703
▁priorit	-9704
enna	-9705
▁surf	-9706
▁tiếc	-9707
Le	-9708
MC	-9709
law	-9710
▁protagon	-9711
▁humor	-9712
▁Smart	-9713
▁width	-9714
▁Jacob	-9715
eech	-9716
▁3-	-9717
▁Vụ	-9718
▁Shipping	-9719
▁Updated	-9720
▁crash	-9721
▁Toy	-9722
▁Bow	-9723
ighter	-9724
▁dệt	-9725
▁Diễn	-9726
ieu	-9727
hu	-9728
advisor	-9729
▁sometimes	-9730
▁Quick	-9731
▁Hoàn	-9732
làm	-9733
▁row	-9734
page	-9735
▁hung	-9736
▁crowd	-9737
▁Its	-9738
▁gifts	-9739
▁Jerry	-9740
▁waste	-9741
▁circumstances	-9742
ito	-9743
ardens	-9744
▁incred	-9745
ivis	-9746
mont	-9747
▁Front	-9748
orough	-9749
▁Bon	-9750
▁charm	-9751
▁Tax	-9752
▁Ngôi	-9753
▁ngầm	-9754
eeps	-9755
▁).	-9756
▁cans	-9757
gest	-9758
▁Emily	-9759
▁authentic	-9760
▁Film	-9761
▁Quá	-9762
▁sexual	-9763
▁haven	-9764
▁Ever	-9765
▁CEO	-9766
▁Dark	-9767
aki	-9768
▁(7)	-9769
▁knows	-9770
▁Reading	-9771
▁passeng	-9772
▁Own	-9773
▁begins	-9774
▁ngơi	-9775
ifying	-9776
▁tourn	-9777
▁enjoying	-9778
▁dò	-9779
ters	-9780
▁wealth	-9781
▁removed	-9782
▁technologies	-9783
▁dừa	-9784
▁buyers	-9785
annah	-9786
▁bơm	-9787
▁answers	-9788
▁CR	-9789
▁Building	-9790
Book	-9791
▁hoảng	-9792
aga	-9793
reams	-9794
▁legs	-9795
▁2007.	-9796
▁đắt	-9797
▁Commission	-9798
").	-9799
uty	-9800
fall	-9801
incoln	-9802
eb	-9803
▁dedication	-9804
occer	-9805
nesota	-9806
▁regulations	-9807
▁fewer	-9808
▁appealing	-9809
▁27,	-9810
▁Age	-9811
▁Thỏa	-9812
phia	-9813
▁Perform	-9814
▁Customer	-9815
▁joined	-9816
94	-9817
▁mile	-9818
des	-9819
▁tồi	-9820
▁blocks	-9821
▁aesthet	-9822
▁male	-9823
▁GT	-9824
onym	-9825
▁tước	-9826
,...	-9827
isk	-9828
ospit	-9829
▁Cha	-9830
▁17.	-9831
▁Heart	-9832
ycling	-9833
▁Books	-9834
▁funds	-9835
▁Samsung	-9836
▁rỡ	-9837
▁Personal	-9838
▁Commer	-9839
93	-9840
▁Corn	-9841
▁trạm	-9842
▁govern	-9843
▁Song	-9844
▁wiki	-9845
▁German	-9846
▁rực	-9847
iant	-9848
▁trộm	-9849
▁chiết	-9850
▁signed	-9851
▁Trẻ	-9852
▁Marketing	-9853
▁nan	-9854
class	-9855
▁anecd	-9856
poration	-9857
▁charges	-9858
▁Bag	-9859
▁nén	-9860
▁Hiệu	-9861
▁rare	-9862
▁stone	-9863
fol	-9864
▁extrem	-9865
▁Australian	-9866
Why	-9867
▁orange	-9868
▁cruc	-9869
▁earth	-9870
HT	-9871
▁aut	-9872
▁phường	-9873
okes	-9874
▁Secret	-9875
urious	-9876
▁adopt	-9877
▁metaph	-9878
▁tọa	-9879
▁Trust	-9880
isation	-9881
̣c	-9882
▁Ali	-9883
▁Econom	-9884
▁corporate	-9885
▁AB	-9886
▁coc	-9887
▁Cây	-9888
▁Li	-9889
▁Conc	-9890
ulate	-9891
▁ngợi	-9892
▁Deb	-9893
count	-9894
▁Stephen	-9895
HS	-9896
▁125	-9897
▁Hold	-9898
▁Sant	-9899
▁Bat	-9900
▁Advertisements	-9901
acious	-9902
orgeous	-9903
ications	-9904
iminal	-9905
▁130	-9906
▁symbol	-9907
▁Os	-9908
osa	-9909
▁trắc	-9910
▁vặn	-9911
▁Tạp	-9912
▁Doc	-9913
▁amb	-9914
▁subs	-9915
ERS	-9916
▁Cụ	-9917
▁truth	-9918
▁premium	-9919
▁bẩn	-9920
ansion	-9921
sol	-9922
▁trương	-9923
▁objects	-9924
▁ISBN	-9925
rie	-9926
▁Anna	-9927
aco	-9928
▁cất	-9929
▁guarantee	-9930
ying	-9931
%,	-9932
▁ngào	-9933
▁difficulty	-9934
ifth	-9935
▁hall	-9936
adelphia	-9937
▁viền	-9938
▁Quality	-9939
▁recommendations	-9940
▁arise	-9941
▁controll	-9942
▁scale	-9943
▁scr	-9944
axy	-9945
▁explicit	-9946
▁mồi	-9947
▁tháo	-9948
▁defend	-9949
▁chúa	-9950
▁Entertainment	-9951
roph	-9952
▁2.5	-9953
▁huyền	-9954
▁Wars	-9955
▁committed	-9956
▁improvement	-9957
pat	-9958
▁hoãn	-9959
▁Vâng	-9960
▁vắc	-9961
▁shel	-9962
▁Fred	-9963
▁cou	-9964
▁Matth	-9965
▁museum	-9966
yard	-9967
▁Patrick	-9968
▁performing	-9969
ika	-9970
raq	-9971
▁Pennsylvania	-9972
ủa	-9973
▁Spa	-9974
▁gone	-9975
▁concert	-9976
▁Academy	-9977
▁database	-9978
▁Title	-9979
▁Austin	-9980
((	-9981
berries	-9982
On	-9983
600	-9984
▁Hello	-9985
▁capture	-9986
▁touches	-9987
▁Phong	-9988
sue	-9989
▁config	-9990
▁Cái	-9991
▁Hills	-9992
enda	-9993
▁chìa	-9994
▁secret	-9995
▁Bru	-9996
▁numerous	-9997
▁capabilities	-9998
ression	-9999
!!!!	-10000
▁Human	-10001
▁arrang	-10002
lete	-10003
OO	-10004
▁nhược	-10005
▁Results	-10006
▁tám	-10007
▁bow	-10008
aints	-10009
▁innovation	-10010
▁Chúa	-10011
arry	-10012
aching	-10013
▁input	-10014
▁immediately	-10015
ngày	-10016
▁overcome	-10017
▁century	-10018
xiety	-10019
▁district	-10020
Don	-10021
hr	-10022
iking	-10023
▁spect	-10024
ế	-10025
▁68	-10026
▁Wales	-10027
▁Glass	-10028
▁emergency	-10029
▁quét	-10030
▁African	-10031
▁drinks	-10032
unction	-10033
▁usage	-10034
▁qualities	-10035
’,	-10036
▁competitors	-10037
▁6:	-10038
▁Bol	-10039
▁Lisa	-10040
regon	-10041
▁flour	-10042
aurant	-10043
ulated	-10044
▁assuming	-10045
▁cước	-10046
▁messages	-10047
ogether	-10048
ếch	-10049
▁hardware	-10050
▁Wilson	-10051
▁shooting	-10052
▁Line	-10053
▁Classic	-10054
▁Albert	-10055
▁candidate	-10056
▁pandemic	-10057
low	-10058
▁consequence	-10059
▁vintage	-10060
▁Tuần	-10061
▁loyal	-10062
▁garage	-10063
▁symptoms	-10064
▁engagement	-10065
▁Quyền	-10066
^3	-10067
ucle	-10068
inations	-10069
▁Terms	-10070
iversary	-10071
▁Minh	-10072
▁parent	-10073
92	-10074
▁bận	-10075
▁quyến	-10076
▁fantastic	-10077
▁blend	-10078
▁25.	-10079
▁notice	-10080
▁aid	-10081
▁helped	-10082
▁fixed	-10083
ingham	-10084
▁crucial	-10085
▁convincing	-10086
▁corner	-10087
▁trân	-10088
▁mỏi	-10089
▁phím	-10090
▁bedrooms	-10091
▁iron	-10092
▁performed	-10093
arsh	-10094
▁Hawai	-10095
▁Did	-10096
▁$2	-10097
▁destination	-10098
▁Hal	-10099
▁Answ	-10100
▁đoạt	-10101
▁forget	-10102
gen	-10103
▁athlet	-10104
00.000	-10105
▁Dri	-10106
▁1200	-10107
/6	-10108
▁Đất	-10109
▁agency	-10110
▁dưa	-10111
▁happened	-10112
▁ED	-10113
▁alone	-10114
▁Pen	-10115
ture	-10116
VE	-10117
rics	-10118
▁Dead	-10119
▁anticip	-10120
▁talking	-10121
expected	-10122
▁Thẩm	-10123
▁exhibition	-10124
▁arm	-10125
▁exchange	-10126
▁dee	-10127
cong	-10128
otic	-10129
▁Kenn	-10130
▁khôi	-10131
▁Short	-10132
▁Sher	-10133
▁pepper	-10134
CM	-10135
▁protagonist	-10136
▁began	-10137
▁favour	-10138
pa	-10139
▁Bh	-10140
▁veter	-10141
▁Edition	-10142
xim	-10143
▁điêu	-10144
▁Cut	-10145
▁FA	-10146
▁19.	-10147
▁delivered	-10148
▁nutr	-10149
▁Khả	-10150
▁manh	-10151
▁Financial	-10152
52	-10153
New	-10154
▁maybe	-10155
▁Cool	-10156
▁Italy	-10157
='	-10158
▁53	-10159
ns	-10160
▁bom	-10161
ista	-10162
asant	-10163
▁Beth	-10164
▁Links	-10165
▁29,	-10166
▁intent	-10167
tim	-10168
▁Trưởng	-10169
▁durable	-10170
*.	-10171
`.	-10172
▁flexible	-10173
▁Perfect	-10174
▁absence	-10175
éc	-10176
▁Minnesota	-10177
▁contest	-10178
bal	-10179
▁mỡ	-10180
Ad	-10181
▁Mini	-10182
▁xi	-10183
▁Release	-10184
▁kept	-10185
▁horse	-10186
▁Ah	-10187
ahoo	-10188
▁provider	-10189
▁Bry	-10190
ulty	-10191
▁thịnh	-10192
▁Cổ	-10193
▁senior	-10194
▁sky	-10195
ih	-10196
▁Standard	-10197
▁chemical	-10198
▁packages	-10199
new	-10200
ova	-10201
▁labor	-10202
▁swimming	-10203
▁Biểu	-10204
▁Images	-10205
dr	-10206
▁uplo	-10207
▁jar	-10208
▁Motor	-10209
▁Alexander	-10210
▁surpr	-10211
▁Ext	-10212
▁indicated	-10213
step	-10214
▁sauce	-10215
▁Nat	-10216
▁soph	-10217
▁primarily	-10218
ượn	-10219
▁thám	-10220
via	-10221
▁pets	-10222
▁2003	-10223
▁bond	-10224
ints	-10225
▁30%	-10226
▁continues	-10227
▁extensive	-10228
▁approximately	-10229
▁Credit	-10230
▁functional	-10231
▁bass	-10232
▁EP	-10233
▁HIV	-10234
▁Oregon	-10235
▁gran	-10236
▁2-	-10237
▁Billy	-10238
▁moved	-10239
FF	-10240
▁lồng	-10241
cô	-10242
▁cockt	-10243
▁NEW	-10244
ghan	-10245
▁Math	-10246
View	-10247
▁mal	-10248
▁Kore	-10249
▁Account	-10250
▁Philipp	-10251
▁load	-10252
akh	-10253
achus	-10254
▁hook	-10255
▁elabor	-10256
▁Dallas	-10257
▁Đảm	-10258
▁đinh	-10259
ptop	-10260
-1.	-10261
▁Non	-10262
EA	-10263
-15	-10264
▁became	-10265
1]	-10266
onia	-10267
▁investigation	-10268
▁apple	-10269
▁amp	-10270
iner	-10271
▁Ger	-10272
▁violence	-10273
▁xám	-10274
▁magn	-10275
▁Atlanta	-10276
▁IL	-10277
▁replacement	-10278
▁BM	-10279
aux	-10280
/2020/	-10281
blog	-10282
support	-10283
▁throw	-10284
po	-10285
▁ruột	-10286
▁occasion	-10287
▁Ent	-10288
▁felt	-10289
▁TO	-10290
▁typically	-10291
etts	-10292
▁achieving	-10293
▁perception	-10294
asters	-10295
▁guidelines	-10296
umps	-10297
▁opened	-10298
▁Analysis	-10299
▁Additional	-10300
length	-10301
▁trustworth	-10302
rad	-10303
▁Đang	-10304
▁fee	-10305
▁CT	-10306
▁vụn	-10307
▁Want	-10308
▁positions	-10309
▁communicate	-10310
vance	-10311
▁Winter	-10312
▁loan	-10313
hiểu	-10314
owa	-10315
ori	-10316
▁deeper	-10317
▁decline	-10318
No	-10319
▁thắt	-10320
▁kid	-10321
▁eats	-10322
▁Resort	-10323
▁Pa	-10324
tên	-10325
▁alumni	-10326
▁diversity	-10327
▁challenging	-10328
sea	-10329
▁vú	-10330
▁winner	-10331
mart	-10332
▁Kansas	-10333
▁Dam	-10334
▁offerings	-10335
▁pul	-10336
making	-10337
▁Sep	-10338
▁sáp	-10339
Số	-10340
▁59	-10341
▁faster	-10342
▁installed	-10343
▁rốt	-10344
▁justify	-10345
▁Đế	-10346
▁nearly	-10347
▁Lic	-10348
▁105	-10349
▁tung	-10350
▁Suite	-10351
price	-10352
sec	-10353
cles	-10354
terior	-10355
▁holds	-10356
▁Ross	-10357
▁bon	-10358
▁ultimately	-10359
▁Dress	-10360
▁Andy	-10361
▁Break	-10362
▁distribution	-10363
▁Committee	-10364
▁hundred	-10365
▁lính	-10366
▁liters	-10367
▁bra	-10368
ishing	-10369
▁Forest	-10370
▁Comb	-10371
▁Khoản	-10372
▁ranh	-10373
▁Body	-10374
▁vent	-10375
▁Copyright	-10376
▁enjoyable	-10377
▁Systems	-10378
abb	-10379
▁struct	-10380
▁candidates	-10381
trip	-10382
▁Dom	-10383
▁Government	-10384
ớn	-10385
▁pregn	-10386
▁chéo	-10387
/2023/	-10388
▁pricing	-10389
▁NS	-10390
cal	-10391
▁trailer	-10392
vertise	-10393
▁lợn	-10394
▁viewed	-10395
bot	-10396
▁ol	-10397
▁Month	-10398
▁causes	-10399
embly	-10400
▁God	-10401
▁$1	-10402
▁vin	-10403
tered	-10404
▁1999	-10405
▁76	-10406
ulf	-10407
▁đắn	-10408
▁Singapore	-10409
▁intellig	-10410
▁impressive	-10411
front	-10412
▁youth	-10413
▁Mom	-10414
ppers	-10415
▁bổng	-10416
▁ngẫm	-10417
▁Ingredients	-10418
▁infrastructure	-10419
▁automatically	-10420
▁ngoái	-10421
▁buildings	-10422
▁mur	-10423
▁62	-10424
cher	-10425
/3)	-10426
▁drawing	-10427
▁Lincoln	-10428
▁sample	-10429
▁WordPress	-10430
manship	-10431
HA	-10432
build	-10433
iest	-10434
▁unf	-10435
▁Content	-10436
▁đun	-10437
exc	-10438
▁Consult	-10439
▁Lyn	-10440
')	-10441
thernet	-10442
▁Hộp	-10443
▁hối	-10444
▁ran	-10445
▁granted	-10446
▁hạch	-10447
▁tracks	-10448
▁compare	-10449
▁Natural	-10450
▁accepted	-10451
▁carefully	-10452
▁gôn	-10453
ige	-10454
▁walls	-10455
▁unclear	-10456
▁jewelry	-10457
mo	-10458
▁drivers	-10459
▁Iraq	-10460
▁ongoing	-10461
onna	-10462
▁Near	-10463
▁electron	-10464
▁Resp	-10465
▁tennis	-10466
91	-10467
▁Canadian	-10468
▁references	-10469
ẫy	-10470
etry	-10471
ouri	-10472
▁appeared	-10473
▁preparation	-10474
▁khát	-10475
For	-10476
▁67	-10477
▁Ưu	-10478
▁Phản	-10479
ania	-10480
▁vòi	-10481
▁guess	-10482
▁Prom	-10483
▁calling	-10484
sa	-10485
▁route	-10486
▁Latest	-10487
acon	-10488
▁LO	-10489
iquid	-10490
▁conversation	-10491
▁ends	-10492
zzle	-10493
▁Congress	-10494
▁nurs	-10495
▁victim	-10496
▁Philadelphia	-10497
▁pencils	-10498
▁anti	-10499
proof	-10500
▁Pract	-10501
gricult	-10502
▁Spanish	-10503
▁Beautiful	-10504
▁goods	-10505
you	-10506
▁Southern	-10507
▁Roman	-10508
▁reinforced	-10509
▁cable	-10510
--(	-10511
▁tub	-10512
▁Tok	-10513
▁por	-10514
eng	-10515
etch	-10516
▁Phys	-10517
cy	-10518
▁CL	-10519
▁lose	-10520
▁Susan	-10521
công	-10522
▁powder	-10523
▁pitch	-10524
▁brush	-10525
trung	-10526
aro	-10527
▁Ru	-10528
▁linked	-10529
▁Snow	-10530
▁engineering	-10531
▁IV	-10532
▁HP	-10533
▁Diện	-10534
▁KB	-10535
ounded	-10536
▁Airport	-10537
▁Miller	-10538
ione	-10539
▁meals	-10540
▁attitude	-10541
8)	-10542
ez	-10543
▁crew	-10544
▁vĩnh	-10545
ximity	-10546
▁previously	-10547
▁pride	-10548
▁Bern	-10549
▁floors	-10550
Ed	-10551
▁OR	-10552
▁lbs	-10553
▁Talk	-10554
▁remind	-10555
▁lounge	-10556
▁mort	-10557
▁cơm	-10558
▁huynh	-10559
▁Dream	-10560
▁confident	-10561
bie	-10562
▁signs	-10563
▁mầm	-10564
ician	-10565
▁generation	-10566
▁2.0	-10567
▁Dor	-10568
▁pic	-10569
▁pháo	-10570
▁Giờ	-10571
▁Hàm	-10572
▁móng	-10573
ship	-10574
number	-10575
▁Cũng	-10576
▁Manufact	-10577
▁Cy	-10578
▁Girl	-10579
▁simpl	-10580
▁nhạt	-10581
▁Rập	-10582
▁2017,	-10583
▁Ak	-10584
7)	-10585
He	-10586
▁Thổ	-10587
▁mệt	-10588
reens	-10589
2:	-10590
▁Golden	-10591
▁lăn	-10592
▁tells	-10593
▁Thiên	-10594
▁bách	-10595
▁consists	-10596
▁Resources	-10597
▁Double	-10598
PP	-10599
▁Bush	-10600
▁thinks	-10601
1%	-10602
▁Khám	-10603
▁25%	-10604
▁anc	-10605
▁Collect	-10606
▁lề	-10607
astern	-10608
▁Chief	-10609
▁false	-10610
udes	-10611
▁workshop	-10612
▁figures	-10613
▁Sao	-10614
▁justice	-10615
▁220	-10616
▁Professional	-10617
▁letters	-10618
▁attended	-10619
▁printed	-10620
>>	-10621
▁wheel	-10622
▁lánh	-10623
▁stunning	-10624
đun	-10625
▁describes	-10626
▁Cover	-10627
▁trial	-10628
▁NOT	-10629
▁agreement	-10630
ensed	-10631
▁hề	-10632
▁fru	-10633
▁Dùng	-10634
ameter	-10635
▁industries	-10636
▁>.	-10637
▁wel	-10638
▁Core	-10639
rupt	-10640
▁renew	-10641
▁Apply	-10642
achusetts	-10643
▁desired	-10644
▁QU	-10645
▁predict	-10646
▁40.	-10647
▁alcohol	-10648
erving	-10649
▁Vật	-10650
▁Ele	-10651
don	-10652
date	-10653
▁reward	-10654
▁broken	-10655
odies	-10656
▁Cham	-10657
"..	-10658
▁7:	-10659
▁critic	-10660
▁User	-10661
▁critically	-10662
road	-10663
▁xào	-10664
▁Thuế	-10665
uma	-10666
!!!.	-10667
▁honor	-10668
GA	-10669
ante	-10670
▁dũng	-10671
▁tháp	-10672
ned	-10673
▁minimum	-10674
▁fo	-10675
▁Springs	-10676
liance	-10677
▁errors	-10678
khu	-10679
▁criteria	-10680
▁Camera	-10681
▁Pit	-10682
▁becomes	-10683
('	-10684
▁Davis	-10685
▁Simon	-10686
▁enthusias	-10687
▁80%	-10688
tìm	-10689
▁rỉ	-10690
▁cởi	-10691
▁staying	-10692
/01	-10693
iac	-10694
▁internal	-10695
ogue	-10696
▁uncertain	-10697
▁cừu	-10698
▁Vo	-10699
▁Les	-10700
▁dạo	-10701
82	-10702
▁trật	-10703
aha	-10704
▁election	-10705
▁Base	-10706
▁Olympic	-10707
▁Large	-10708
SE	-10709
▁minor	-10710
▁facebook	-10711
▁nạp	-10712
YT	-10713
Sc	-10714
▁Text	-10715
▁houses	-10716
▁Dimensions	-10717
▁Phố	-10718
▁managed	-10719
▁Gần	-10720
du	-10721
▁cãi	-10722
▁killed	-10723
▁Another	-10724
▁SEO	-10725
▁plugin	-10726
▁Send	-10727
plifying	-10728
4-	-10729
▁extension	-10730
▁ti	-10731
▁Height	-10732
▁proximity	-10733
▁wasn	-10734
▁contributing	-10735
Hz	-10736
anie	-10737
▁Side	-10738
▁campus	-10739
▁percentage	-10740
▁informative	-10741
nic	-10742
ossible	-10743
▁officials	-10744
athon	-10745
▁triều	-10746
▁Senior	-10747
/2019	-10748
▁cutting	-10749
▁Sport	-10750
▁Donald	-10751
▁industrial	-10752
▁Village	-10753
oen	-10754
▁juice	-10755
▁alle	-10756
▁stainless	-10757
igs	-10758
▁giận	-10759
▁recognizing	-10760
▁extended	-10761
▁Toàn	-10762
▁CB	-10763
▁450	-10764
▁suspect	-10765
▁mò	-10766
▁Create	-10767
MB	-10768
ugs	-10769
▁WW	-10770
▁vẹn	-10771
▁Original	-10772
intendo	-10773
▁Az	-10774
icon	-10775
iva	-10776
▁Forum	-10777
overs	-10778
▁baking	-10779
▁couldn	-10780
▁strive	-10781
och	-10782
▁Station	-10783
▁Staff	-10784
mouth	-10785
▁Kể	-10786
▁authors	-10787
▁đáy	-10788
urers	-10789
▁sofa	-10790
▁dải	-10791
onsin	-10792
ORE	-10793
▁Safety	-10794
▁Medicine	-10795
▁occurr	-10796
▁consumption	-10797
abil	-10798
▁Bear	-10799
▁Pink	-10800
▁recommendation	-10801
▁unexpected	-10802
▁Sức	-10803
▁Creative	-10804
▁Delivery	-10805
{\	-10806
▁sq	-10807
arian	-10808
▁Words	-10809
▁mountain	-10810
▁principles	-10811
▁occup	-10812
▁solar	-10813
rum	-10814
▁Opt	-10815
▁chày	-10816
▁2/3	-10817
isconsin	-10818
▁Tăng	-10819
SC	-10820
▁Wa	-10821
sen	-10822
▁charged	-10823
▁pun	-10824
▁whose	-10825
mel	-10826
▁gạo	-10827
▁spiritual	-10828
▁hò	-10829
▁Pacific	-10830
uster	-10831
▁speak	-10832
▁Pur	-10833
▁direction	-10834
resp	-10835
▁hổ	-10836
▁plenty	-10837
▁Ethernet	-10838
▁Students	-10839
▁Hair	-10840
▁sou	-10841
ickets	-10842
▁unable	-10843
▁2013,	-10844
▁8:	-10845
prene	-10846
isodes	-10847
▁matches	-10848
▁dating	-10849
atches	-10850
tario	-10851
▁exploring	-10852
▁rot	-10853
▁đúc	-10854
▁rib	-10855
fortun	-10856
":	-10857
'?	-10858
roit	-10859
▁kick	-10860
▁river	-10861
ylon	-10862
otive	-10863
Cont	-10864
▁extremely	-10865
▁rạp	-10866
▁Đài	-10867
▁Executive	-10868
▁seats	-10869
▁concerned	-10870
̣n	-10871
▁Cấp	-10872
▁Clark	-10873
▁treatments	-10874
▁Cổng	-10875
▁succeed	-10876
▁1990	-10877
▁đói	-10878
▁trading	-10879
▁0.5	-10880
▁treated	-10881
▁Leave	-10882
▁quyển	-10883
▁Nut	-10884
▁Cult	-10885
▁coast	-10886
All	-10887
▁applicable	-10888
bel	-10889
ATION	-10890
▁Conf	-10891
▁Autom	-10892
▁Solving	-10893
▁ngọc	-10894
▁Ngoại	-10895
▁Ott	-10896
▁Feature	-10897
▁elegant	-10898
▁raised	-10899
▁laws	-10900
▁functions	-10901
lav	-10902
▁therapy	-10903
▁influenced	-10904
▁passing	-10905
▁nến	-10906
itable	-10907
▁Đa	-10908
▁awards	-10909
bow	-10910
mi	-10911
số	-10912
▁Diamond	-10913
▁transpar	-10914
▁complexity	-10915
▁2001	-10916
▁Orange	-10917
ịt	-10918
▁Ga	-10919
issa	-10920
erd	-10921
▁DNA	-10922
lahoma	-10923
▁Arg	-10924
▁Experience	-10925
esy	-10926
rylic	-10927
▁Rain	-10928
▁stretch	-10929
10,	-10930
▁identifying	-10931
▁individualism	-10932
▁Ult	-10933
▁spr	-10934
▁đồi	-10935
▁thoáng	-10936
▁biggest	-10937
▁successfully	-10938
olly	-10939
arters	-10940
▁infect	-10941
▁holding	-10942
▁reaction	-10943
▁Tối	-10944
▁Moon	-10945
▁Solutions	-10946
!)	-10947
▁Rating	-10948
▁federal	-10949
▁voi	-10950
▁foreign	-10951
▁Mang	-10952
size	-10953
▁Nav	-10954
▁commonly	-10955
▁MO	-10956
▁Categories	-10957
atever	-10958
mg	-10959
ppy	-10960
▁tomorrow	-10961
▁diamond	-10962
▁sessions	-10963
icans	-10964
▁cướp	-10965
▁viewing	-10966
▁Continue	-10967
▁Was	-10968
star	-10969
abet	-10970
▁laser	-10971
▁reached	-10972
▁108	-10973
▁Flash	-10974
reprene	-10975
▁chuối	-10976
/2017	-10977
▁toy	-10978
▁il	-10979
▁hươ	-10980
inity	-10981
▁Lau	-10982
Pr	-10983
▁worry	-10984
▁Jennifer	-10985
emat	-10986
▁Lewis	-10987
▁reflects	-10988
▁1970	-10989
inch	-10990
▁Subtract	-10991
▁Hầu	-10992
▁editor	-10993
'>	-10994
brid	-10995
▁Aff	-10996
▁1980	-10997
(2	-10998
▁ease	-10999
world	-11000
▁dial	-11001
▁nguội	-11002
́ng	-11003
▁Buff	-11004
bf	-11005
grad	-11006
▁hat	-11007
▁ơ	-11008
▁24.	-11009
▁thousands	-11010
▁ads	-11011
▁Hậu	-11012
▁Tan	-11013
▁raises	-11014
▁bấm	-11015
▁reduced	-11016
▁prove	-11017
▁trúng	-11018
/2024/	-11019
iny	-11020
▁missed	-11021
▁Kir	-11022
folio	-11023
lad	-11024
▁weekly	-11025
▁searching	-11026
>2	-11027
▁Lấy	-11028
▁Insurance	-11029
▁conducted	-11030
▁depends	-11031
conf	-11032
▁Túi	-11033
▁Nhĩ	-11034
▁Remove	-11035
▁Lane	-11036
▁2012,	-11037
▁urgency	-11038
▁residential	-11039
▁crack	-11040
▁Nik	-11041
▁Indiana	-11042
war	-11043
▁-1	-11044
pur	-11045
▁likes	-11046
▁Recomm	-11047
▁Simplifying	-11048
eremony	-11049
▁oranges	-11050
▁warning	-11051
born	-11052
▁channel	-11053
▁Division	-11054
▁Chuyến	-11055
▁Hàn	-11056
aa	-11057
▁điên	-11058
▁Democr	-11059
▁sad	-11060
▁Bridge	-11061
▁Vận	-11062
▁scheduled	-11063
********	-11064
▁—>	-11065
▁feels	-11066
▁wheels	-11067
▁lăng	-11068
▁Using	-11069
gage	-11070
▁obst	-11071
▁BC	-11072
▁Aqu	-11073
▁Ide	-11074
▁RSS	-11075
RI	-11076
sau	-11077
RS	-11078
TML	-11079
▁Lady	-11080
▁relief	-11081
▁Kr	-11082
▁480	-11083
▁BBC	-11084
▁gear	-11085
▁Mẹ	-11086
▁improving	-11087
▁Dun	-11088
▁Bowl	-11089
▁assessment	-11090
}\	-11091
▁Stay	-11092
▁Justin	-11093
▁Kingdom	-11094
▁SD	-11095
▁Bàn	-11096
6-	-11097
▁Massachusetts	-11098
▁Som	-11099
▁output	-11100
▁Rachel	-11101
▁Update	-11102
▁stream	-11103
▁equally	-11104
▁sét	-11105
▁Student	-11106
▁Mun	-11107
▁Metal	-11108
edu	-11109
▁hoan	-11110
▁Anthony	-11111
verse	-11112
▁lyrics	-11113
▁Has	-11114
▁continued	-11115
circ	-11116
▁SKU	-11117
▁92	-11118
▁Chair	-11119
▁agent	-11120
placeholder	-11121
▁tournament	-11122
wall	-11123
▁thấm	-11124
oker	-11125
▁Wedding	-11126
ek	-11127
hyd	-11128
▁Cape	-11129
▁Right	-11130
▁gấu	-11131
50.	-11132
agers	-11133
▁Asia	-11134
/9	-11135
▁khơi	-11136
▁khoan	-11137
from	-11138
▁monthly	-11139
▁hopes	-11140
▁explicitly	-11141
▁âu	-11142
▁Berlin	-11143
▁1500	-11144
▁luck	-11145
▁CC	-11146
RP	-11147
▁Annual	-11148
Tại	-11149
▁Kay	-11150
▁returns	-11151
▁ướt	-11152
▁processing	-11153
▁artistic	-11154
abama	-11155
▁partnership	-11156
201	-11157
▁IM	-11158
▁Private	-11159
▁west	-11160
mec	-11161
onesia	-11162
cat	-11163
▁NBA	-11164
▁contrast	-11165
▁Subtracting	-11166
-13	-11167
▁enable	-11168
▁clothes	-11169
▁Pick	-11170
▁random	-11171
ificate	-11172
ión	-11173
▁SW	-11174
▁WH	-11175
▁Buck	-11176
▁Thưởng	-11177
▁occurred	-11178
▁happening	-11179
vard	-11180
▁alt	-11181
3',	-11182
▁nhộn	-11183
▁Must	-11184
OH	-11185
▁diệu	-11186
▁lọ	-11187
utely	-11188
▁Before	-11189
Up	-11190
999	-11191
▁recognized	-11192
▁Dist	-11193
▁Birth	-11194
▁apps	-11195
▁Alice	-11196
unter	-11197
▁renov	-11198
▁venue	-11199
▁\[\	-11200
▁solo	-11201
▁toys	-11202
▁iOS	-11203
▁Software	-11204
ếm	-11205
uages	-11206
▁worse	-11207
▁cro	-11208
▁deck	-11209
▁surgery	-11210
▁investig	-11211
▁frag	-11212
▁dẹp	-11213
▁700	-11214
▁suggestion	-11215
▁Ask	-11216
▁thự	-11217
▁worldwide	-11218
▁AN	-11219
elled	-11220
▁tựu	-11221
▁Discuss	-11222
▁77	-11223
▁Bird	-11224
▁mốc	-11225
▁2014,	-11226
osit	-11227
▁Mở	-11228
▁plate	-11229
▁mươi	-11230
▁calculate	-11231
▁Clear	-11232
▁khuấy	-11233
agh	-11234
oty	-11235
▁Cotton	-11236
lers	-11237
door	-11238
▁Russian	-11239
olo	-11240
▁CP	-11241
eman	-11242
▁rose	-11243
▁Om	-11244
▁Tốt	-11245
▁ngã	-11246
App	-11247
▁yards	-11248
▁yết	-11249
▁2002	-11250
▁Wisconsin	-11251
▁cru	-11252
▁Round	-11253
▁gradu	-11254
▁shirts	-11255
▁21.	-11256
khách	-11257
▁religious	-11258
▁resistance	-11259
▁mode	-11260
▁VA	-11261
▁quái	-11262
▁9:	-11263
▁lip	-11264
▁mưu	-11265
▁managing	-11266
▁Single	-11267
▁village	-11268
▁Challeng	-11269
▁criminal	-11270
▁printing	-11271
vet	-11272
▁rung	-11273
▁containing	-11274
▁Fashion	-11275
supported	-11276
apolis	-11277
ipedia	-11278
▁Pear	-11279
itting	-11280
▁Minister	-11281
▁relevance	-11282
▁Host	-11283
▁failing	-11284
ulpt	-11285
▁cooper	-11286
Be	-11287
▁supplies	-11288
RC	-11289
▁Step	-11290
▁hearing	-11291
ellence	-11292
▁contributions	-11293
▁Ontario	-11294
Một	-11295
▁gỉ	-11296
icians	-11297
▁straw	-11298
▁characteristics	-11299
erstood	-11300
▁learned	-11301
=12	-11302
web	-11303
ndry	-11304
▁4-	-11305
esa	-11306
▁beads	-11307
▁Krist	-11308
▁0,5	-11309
▁Modern	-11310
▁television	-11311
vd	-11312
▁flights	-11313
▁colours	-11314
▁Es	-11315
▁LI	-11316
▁Mach	-11317
▁Gab	-11318
▁posting	-11319
▁tough	-11320
▁Beat	-11321
▁Latin	-11322
▁delight	-11323
▁Khóa	-11324
▁suggested	-11325
lix	-11326
▁shops	-11327
▁ri	-11328
▁moist	-11329
atto	-11330
▁Prim	-11331
▁Tree	-11332
▁holidays	-11333
▁Ngay	-11334
▁looked	-11335
thur	-11336
▁lưỡi	-11337
▁implementation	-11338
wash	-11339
opher	-11340
▁gender	-11341
▁repetition	-11342
▁teen	-11343
▁marriage	-11344
▁Questions	-11345
▁Hạ	-11346
ento	-11347
▁virtual	-11348
▁attractions	-11349
▁fell	-11350
▁layout	-11351
▁ultimate	-11352
————	-11353
▁cupc	-11354
▁ethical	-11355
▁Lam	-11356
latec	-11357
▁Kate	-11358
nessee	-11359
▁Sĩ	-11360
▁vâng	-11361
▁Sem	-11362
QL	-11363
oven	-11364
▁Cloud	-11365
hai	-11366
▁medlatec	-11367
▁xóm	-11368
▁tests	-11369
▁Wik	-11370
▁Ukr	-11371
▁advertise	-11372
▁210	-11373
atitude	-11374
▁Missouri	-11375
▁loves	-11376
▁launched	-11377
▁xưa	-11378
▁đới	-11379
▁lặn	-11380
▁Engineering	-11381
▁dốc	-11382
▁weap	-11383
▁Jimmy	-11384
▁Eag	-11385
▁Oxford	-11386
▁Ow	-11387
▁Emplo	-11388
▁providers	-11389
▁electronic	-11390
▁convince	-11391
recogn	-11392
ouver	-11393
▁rail	-11394
EX	-11395
▁gorgeous	-11396
ễu	-11397
▁john	-11398
?),	-11399
/2016	-11400
▁Rome	-11401
▁mistakes	-11402
▁lũy	-11403
▁originally	-11404
fault	-11405
01	-11406
▁justification	-11407
▁metaphor	-11408
▁VAT	-11409
▁vacc	-11410
▁buck	-11411
▁Guard	-11412
▁Aw	-11413
▁tò	-11414
cue	-11415
▁brace	-11416
▁cắp	-11417
pal	-11418
▁Cab	-11419
▁Days	-11420
Number	-11421
▁joining	-11422
iệu	-11423
▁ủi	-11424
▁canvas	-11425
▁Oklahoma	-11426
otten	-11427
24/	-11428
▁refresh	-11429
understandable	-11430
▁hip	-11431
▁WA	-11432
▁Tai	-11433
▁Ocean	-11434
▁Nintendo	-11435
▁Change	-11436
▁Emer	-11437
imb	-11438
uplo	-11439
▁Trích	-11440
▁talks	-11441
isters	-11442
▁publication	-11443
▁slightly	-11444
▁brain	-11445
▁Allen	-11446
▁Còn	-11447
▁Dep	-11448
▁193	-11449
▁ET	-11450
▁3.5	-11451
▁Nic	-11452
eron	-11453
▁pixels	-11454
▁GB	-11455
ingu	-11456
▁dental	-11457
sub	-11458
▁stickers	-11459
ERE	-11460
▁formal	-11461
ceeds	-11462
▁Course	-11463
▁Osc	-11464
▁nghiền	-11465
▁poem	-11466
▁TC	-11467
▁Arab	-11468
My	-11469
orders	-11470
▁nostalgia	-11471
▁]	-11472
):.	-11473
▁license	-11474
hes	-11475
▁storm	-11476
▁GA	-11477
▁2015,	-11478
▁seg	-11479
▁ordered	-11480
▁NJ	-11481
▁quiet	-11482
▁lốp	-11483
dam	-11484
good	-11485
▁glad	-11486
▁Cars	-11487
▁login	-11488
▁weighs	-11489
▁mat	-11490
▁Advent	-11491
▁2006.	-11492
▁7)	-11493
''	-11494
etta	-11495
▁Clo	-11496
▁wooden	-11497
▁Beck	-11498
▁civil	-11499
amel	-11500
▁Cầu	-11501
iro	-11502
▁frustr	-11503
▁Ring	-11504
▁worn	-11505
▁singer	-11506
71	-11507
▁adop	-11508
▁2016,	-11509
:..	-11510
▁gym	-11511
▁Vinmec	-11512
▁Raj	-11513
▁rèn	-11514
▁Profile	-11515
▁hospit	-11516
▁Nap	-11517
▁empty	-11518
▁border	-11519
▁Nigeria	-11520
▁Gil	-11521
▁Notes	-11522
▁Electric	-11523
▁Edward	-11524
▁correctly	-11525
▁opposed	-11526
▁identified	-11527
▁layer	-11528
▁remote	-11529
▁multiply	-11530
tons	-11531
file	-11532
▁Đến	-11533
ensity	-11534
▁Action	-11535
▁confirmed	-11536
osite	-11537
▁củi	-11538
orks	-11539
highlight	-11540
▁accepting	-11541
800	-11542
thông	-11543
▁320	-11544
▁Gói	-11545
▁dozen	-11546
inf	-11547
▁bab	-11548
▁Construction	-11549
ancouver	-11550
▁Sir	-11551
▁colle	-11552
uyễn	-11553
▁Jew	-11554
▁khốc	-11555
▁Andre	-11556
arrings	-11557
▁vegetables	-11558
▁Fast	-11559
▁Hart	-11560
▁newsp	-11561
▁Photography	-11562
▁!.	-11563
ration	-11564
▁relate	-11565
iết	-11566
▁lake	-11567
▁Chưa	-11568
ockets	-11569
▁2018,	-11570
▁Syn	-11571
▁membership	-11572
Do	-11573
▁handling	-11574
▁hydro	-11575
cha	-11576
long	-11577
▁flexibility	-11578
▁mixed	-11579
foot	-11580
▁liều	-11581
▁wond	-11582
erial	-11583
adium	-11584
▁demonstrate	-11585
paper	-11586
<<.	-11587
▁domain	-11588
ointed	-11589
▁versions	-11590
▁Marsh	-11591
▁Mrs	-11592
ẻo	-11593
num	-11594
▁talented	-11595
/19	-11596
▁lắm	-11597
aret	-11598
▁luxurious	-11599
{3	-11600
▁scholars	-11601
▁==	-11602
▁los	-11603
▁1-	-11604
under	-11605
▁technique	-11606
▁Fav	-11607
▁blank	-11608
ctors	-11609
▁Leon	-11610
▁vibr	-11611
cial	-11612
▁crisis	-11613
▁employment	-11614
▁personality	-11615
▁grab	-11616
▁Learning	-11617
▁foods	-11618
▁anywhere	-11619
▁balloons	-11620
▁NAS	-11621
▁exceptional	-11622
▁honest	-11623
▁texture	-11624
hand	-11625
▁Cùng	-11626
▁cycle	-11627
eler	-11628
▁married	-11629
▁60%	-11630
▁Kind	-11631
▁Sweet	-11632
▁ourselves	-11633
▁estim	-11634
▁ngắm	-11635
▁Bor	-11636
▁thorough	-11637
dis	-11638
▁Language	-11639
▁Cole	-11640
▁Liber	-11641
▁Magazine	-11642
▁sheet	-11643
▁lasting	-11644
▁Bey	-11645
▁adm	-11646
▁stating	-11647
▁Triển	-11648
ategor	-11649
To	-11650
▁Origin	-11651
▁Rights	-11652
▁nảy	-11653
nhà	-11654
▁accounts	-11655
▁Fresh	-11656
▁#1	-11657
▁adventure	-11658
▁nghiệt	-11659
▁69	-11660
▁Thử	-11661
ervations	-11662
▁Áp	-11663
▁hi	-11664
▁Gene	-11665
▁extreme	-11666
▁Kiểu	-11667
▁funny	-11668
)(	-11669
owned	-11670
▁Environment	-11671
▁Iowa	-11672
▁premises	-11673
▁Buổi	-11674
lap	-11675
▁noting	-11676
▁packs	-11677
▁Speed	-11678
=\	-11679
▁Sup	-11680
▁procedures	-11681
itoring	-11682
▁TN	-11683
▁Micro	-11684
▁Holiday	-11685
BL	-11686
▁tùng	-11687
itutions	-11688
▁GD	-11689
▁31,	-11690
▁Cuốn	-11691
▁chìm	-11692
▁faced	-11693
▁2011,	-11694
▁Alabama	-11695
▁cocktail	-11696
▁Bà	-11697
-18	-11698
exts	-11699
▁anxiety	-11700
VC	-11701
▁cultures	-11702
▁KHÔNG	-11703
▁producing	-11704
▁instrument	-11705
▁manual	-11706
igration	-11707
▁warranty	-11708
▁forg	-11709
▁Xếp	-11710
▁wra	-11711
▁contribution	-11712
▁Appro	-11713
▁accommodation	-11714
▁photographs	-11715
▁Russia	-11716
▁beans	-11717
▁lemon	-11718
▁Portland	-11719
▁explanations	-11720
style	-11721
▁Hung	-11722
▁detect	-11723
▁bùng	-11724
▁employee	-11725
▁Anne	-11726
▁minimal	-11727
▁=>	-11728
▁Món	-11729
▁meaningful	-11730
▁Truy	-11731
tháng	-11732
▁Cow	-11733
acher	-11734
▁Cos	-11735
▁recovery	-11736
EP	-11737
▁votes	-11738
▁reminder	-11739
▁auto	-11740
ÂY	-11741
▁Lãnh	-11742
▁emphasis	-11743
▁Vùng	-11744
▁Try	-11745
▁SM	-11746
Làm	-11747
▁Half	-11748
▁74	-11749
tripadvisor	-11750
▁Choose	-11751
ilit	-11752
▁Xbox	-11753
▁pleasure	-11754
▁Melbourne	-11755
▁Capital	-11756
▁forec	-11757
irl	-11758
▁scri	-11759
▁keeps	-11760
▁vinyl	-11761
▁earned	-11762
▁convert	-11763
▁root	-11764
▁pocket	-11765
▁immediate	-11766
▁Burn	-11767
▁vắng	-11768
=63287'>	-11769
▁Thuật	-11770
▁Xã	-11771
▁Dây	-11772
▁league	-11773
▁massage	-11774
▁trễ	-11775
▁Alan	-11776
▁192	-11777
▁quotes	-11778
▁Detroit	-11779
VN	-11780
ibe	-11781
▁reply	-11782
/2013	-11783
▁bes	-11784
▁hidden	-11785
veland	-11786
▁Hawaii	-11787
▁pleased	-11788
▁upper	-11789
▁Memorial	-11790
▁Gift	-11791
▁dimensions	-11792
▁Amy	-11793
▁Hey	-11794
using	-11795
▁xà	-11796
▁victory	-11797
▁Episode	-11798
▁ok	-11799
▁Wine	-11800
▁Clinton	-11801
▁reserved	-11802
BT	-11803
▁Girls	-11804
▁Rober	-11805
dep	-11806
▁xả	-11807
▁Chel	-11808
▁Fant	-11809
▁Harris	-11810
▁Corporation	-11811
Add	-11812
▁Jer	-11813
▁battle	-11814
▁equipped	-11815
▁synth	-11816
▁rộn	-11817
ounce	-11818
▁necklace	-11819
▁sustainability	-11820
▁drugs	-11821
▁Mail	-11822
▁pleasing	-11823
▁xông	-11824
▁tor	-11825
▁ski	-11826
▁rule	-11827
▁sac	-11828
aches	-11829
amount	-11830
▁Yellow	-11831
▁architecture	-11832
ras	-11833
▁cakes	-11834
▁calendar	-11835
5"	-11836
▁hàn	-11837
▁string	-11838
▁Feed	-11839
▁Abstract	-11840
elp	-11841
▁bear	-11842
▁Fu	-11843
adies	-11844
▁Bóng	-11845
anas	-11846
▁chải	-11847
▁machine	-11848
del	-11849
▁humans	-11850
imp	-11851
▁Put	-11852
ivi	-11853
▁harmful	-11854
▁&=	-11855
Co	-11856
▁Trợ	-11857
▁Gary	-11858
▁casual	-11859
▁arrived	-11860
▁->	-11861
uploads	-11862
elson	-11863
▁bringing	-11864
▁unp	-11865
▁rac	-11866
▁fort	-11867
▁pairs	-11868
▁shots	-11869
etime	-11870
▁Ster	-11871
onic	-11872
▁beds	-11873
▁booking	-11874
▁dối	-11875
▁investors	-11876
▁bội	-11877
▁ABC	-11878
▁kép	-11879
▁đền	-11880
▁skilled	-11881
ayer	-11882
attan	-11883
ttp	-11884
▁Videos	-11885
▁(8)	-11886
uminum	-11887
▁Afghan	-11888
▁lận	-11889
▁Tennessee	-11890
▁index	-11891
▁Valent	-11892
Get	-11893
▁Intro	-11894
▁phích	-11895
ritical	-11896
amics	-11897
▁Phạm	-11898
vironments	-11899
▁Năng	-11900
▁Editor	-11901
95.	-11902
▁Karen	-11903
wick	-11904
icate	-11905
▁bridge	-11906
▁Capt	-11907
▁Trận	-11908
acles	-11909
▁proposed	-11910
▁reducing	-11911
▁highlighting	-11912
▁Should	-11913
▁Gigabit	-11914
▁Wy	-11915
uine	-11916
▁generally	-11917
▁Lor	-11918
▁lướt	-11919
▁actor	-11920
▁promp	-11921
▁capable	-11922
▁Đôi	-11923
▁Univers	-11924
▁Cực	-11925
▁Adobe	-11926
▁approved	-11927
/202	-11928
imize	-11929
^\	-11930
acies	-11931
▁Prime	-11932
▁kiệt	-11933
▁cer	-11934
▁Guy	-11935
▁tip	-11936
▁Delhi	-11937
month	-11938
▁1960	-11939
▁lờ	-11940
▁tot	-11941
▁fle	-11942
▁Maryland	-11943
/2014	-11944
▁computer	-11945
Man	-11946
▁implementing	-11947
▁Iron	-11948
▁Version	-11949
▁packaging	-11950
▁performances	-11951
boy	-11952
▁pill	-11953
▁burg	-11954
Fr	-11955
▁tested	-11956
▁checking	-11957
▁planned	-11958
/2015	-11959
▁Artist	-11960
▁băm	-11961
▁Brew	-11962
VA	-11963
cycle	-11964
▁Lot	-11965
▁fits	-11966
▁lessons	-11967
▁aren	-11968
▁Cand	-11969
▁standing	-11970
uses	-11971
ATE	-11972
$",	-11973
▁HTML	-11974
▁Hours	-11975
▁Northern	-11976
minute	-11977
▁Der	-11978
▁Audio	-11979
esis	-11980
▁intern	-11981
▁Partners	-11982
▁trơn	-11983
▁accomplish	-11984
utter	-11985
▁Ark	-11986
▁ped	-11987
▁Past	-11988
▁Similar	-11989
▁episodes	-11990
▁bám	-11991
▁glasses	-11992
▁DO	-11993
▁Lov	-11994
▁xưởng	-11995
05	-11996
irty	-11997
▁rồng	-11998
wan	-11999
▁password	-12000
edge	-12001
▁3000	-12002
bạn	-12003
▁meetings	-12004
bet	-12005
celona	-12006
▁Premier	-12007
ẤT	-12008
▁bến	-12009
child	-12010
▁fest	-12011
▁chips	-12012
PG	-12013
▁Podcast	-12014
▁connecting	-12015
▁61	-12016
▁statistics	-12017
while	-12018
▁abuse	-12019
▁Bức	-12020
▁sar	-12021
▁directions	-12022
▁bound	-12023
▁Dữ	-12024
rypt	-12025
▁Tips	-12026
tle	-12027
▁sitting	-12028
HD	-12029
7',	-12030
VER	-12031
▁respective	-12032
▁iT	-12033
▁aqu	-12034
▁explaining	-12035
▁rely	-12036
▁Regular	-12037
-30	-12038
spe	-12039
▁putting	-12040
▁VI	-12041
▁Nhập	-12042
▁giấm	-12043
AGE	-12044
abad	-12045
▁Joh	-12046
▁Ice	-12047
▁Pier	-12048
eli	-12049
▁delay	-12050
han	-12051
rot	-12052
▁baseball	-12053
umes	-12054
▁Lực	-12055
▁tight	-12056
▁surprise	-12057
▁2010,	-12058
▁Movie	-12059
▁shares	-12060
▁McG	-12061
▁tết	-12062
▁Dầu	-12063
ogy	-12064
▁hôi	-12065
▁Grey	-12066
▁Indonesia	-12067
eat	-12068
▁Record	-12069
▁murder	-12070
▁container	-12071
aria	-12072
eling	-12073
▁clicking	-12074
▁relying	-12075
▁romantic	-12076
▁Anderson	-12077
▁involving	-12078
inos	-12079
oors	-12080
▁tend	-12081
▁marks	-12082
uration	-12083
("$	-12084
▁NO	-12085
arel	-12086
rell	-12087
▁Denver	-12088
▁kilomet	-12089
▁discounts	-12090
▁exploration	-12091
)\	-12092
▁oven	-12093
▁Bloom	-12094
▁closure	-12095
bird	-12096
▁Thường	-12097
▁officer	-12098
ido	-12099
=""	-12100
▁laptop	-12101
▁loyalty	-12102
▁hers	-12103
onsist	-12104
▁Jessica	-12105
▁DIY	-12106
▁apartments	-12107
VP	-12108
▁hack	-12109
▁upgrade	-12110
▁PO	-12111
▁ended	-12112
▁pants	-12113
▁lứa	-12114
▁Thánh	-12115
▁rear	-12116
▁genre	-12117
▁sheets	-12118
▁attacks	-12119
▁platforms	-12120
▁continuous	-12121
▁Whit	-12122
▁belong	-12123
oxide	-12124
▁Self	-12125
▁ốc	-12126
▁Kentucky	-12127
▁arrested	-12128
bul	-12129
LO	-12130
nel	-12131
▁Cắt	-12132
▁Sorry	-12133
▁PRO	-12134
▁Summary	-12135
▁experiencing	-12136
profit	-12137
▁listening	-12138
▁ceremony	-12139
▁Coc	-12140
▁86	-12141
ugar	-12142
▁Giữ	-12143
▁matching	-12144
òm	-12145
▁Moh	-12146
▁rect	-12147
▁Premium	-12148
▁hoá	-12149
kho	-12150
▁$3	-12151
▁OH	-12152
▁Unit	-12153
▁seasons	-12154
olph	-12155
▁cưỡng	-12156
FO	-12157
▁environments	-12158
▁stamps	-12159
gun	-12160
may	-12161
▁Below	-12162
-)	-12163
▁Mall	-12164
▁Lex	-12165
▁spacious	-12166
tegr	-12167
▁elig	-12168
▁stands	-12169
▁Although	-12170
▁Gas	-12171
▁descriptions	-12172
▁Salt	-12173
▁húng	-12174
oust	-12175
ivia	-12176
oenix	-12177
which	-12178
▁luồng	-12179
▁majority	-12180
▁affili	-12181
inking	-12182
▁factory	-12183
▁eo	-12184
▁classroom	-12185
▁favourite	-12186
▁abilities	-12187
▁mạ	-12188
▁Kiến	-12189
▁Articles	-12190
▁preparing	-12191
▁Cooper	-12192
▁2005.	-12193
▁Khuyến	-12194
▁Toyota	-12195
/16	-12196
owing	-12197
▁Hind	-12198
▁Spot	-12199
▁drinking	-12200
usual	-12201
▁tomatoes	-12202
missions	-12203
▁(199	-12204
▁grass	-12205
▁fa	-12206
▁invent	-12207
▁expansion	-12208
▁phớt	-12209
▁elev	-12210
▁Hiển	-12211
cs	-12212
▁Phải	-12213
▁mọc	-12214
coin	-12215
▁Matthew	-12216
▁achievements	-12217
imon	-12218
▁Player	-12219
▁interface	-12220
▁analyt	-12221
▁specifications	-12222
power	-12223
▁teeth	-12224
▁tha	-12225
▁Coffee	-12226
▁Đâu	-12227
amm	-12228
▁FR	-12229
▁pixel	-12230
▁Federal	-12231
▁Ngôn	-12232
50,	-12233
▁hoài	-12234
▁subscri	-12235
▁younger	-12236
▁failed	-12237
▁nghịch	-12238
▁Charlotte	-12239
mann	-12240
▁incorrect	-12241
hops	-12242
giờ	-12243
▁medicine	-12244
leans	-12245
▁Mind	-12246
▁copyright	-12247
▁administration	-12248
ifts	-12249
▁king	-12250
▁Give	-12251
color	-12252
▁cells	-12253
oni	-12254
▁fruits	-12255
▁Vancouver	-12256
MI	-12257
▁agg	-12258
▁invited	-12259
},	-12260
▁outstanding	-12261
IST	-12262
liver	-12263
▁Chăm	-12264
▁visited	-12265
▁boost	-12266
irement	-12267
▁premise	-12268
▁perfectly	-12269
▁82	-12270
orses	-12271
▁divided	-12272
▁constructed	-12273
▁73	-12274
leep	-12275
▁ráp	-12276
walk	-12277
▁Things	-12278
▁sấy	-12279
▁nights	-12280
mathbf	-12281
▁dĩ	-12282
▁gal	-12283
▁dynamic	-12284
▁kề	-12285
từ	-12286
▁Grant	-12287
▁Thung	-12288
▁Steven	-12289
▁inconsist	-12290
▁Would	-12291
▁uk	-12292
▁evol	-12293
▁Sab	-12294
▁Giống	-12295
▁chênh	-12296
▁Condition	-12297
▁interactive	-12298
ader	-12299
rams	-12300
atoes	-12301
▁formula	-12302
align	-12303
▁fulfill	-12304
▁Furn	-12305
▁Trân	-12306
▁châm	-12307
▁shoe	-12308
▁transition	-12309
▁múa	-12310
email	-12311
▁khay	-12312
urning	-12313
▁Dance	-12314
▁graphics	-12315
SD	-12316
▁Trừ	-12317
▁prospect	-12318
har	-12319
And	-12320
ilet	-12321
▁flag	-12322
▁Architect	-12323
rah	-12324
▁ISO	-12325
▁Celebr	-12326
▁authorities	-12327
51	-12328
pen	-12329
▁Tuổi	-12330
▁Maine	-12331
▁carried	-12332
▁lựu	-12333
▁attorney	-12334
▁khử	-12335
▁clinical	-12336
post	-12337
_1	-12338
▁TI	-12339
▁painted	-12340
▁nhôm	-12341
lett	-12342
▁caps	-12343
▁coordin	-12344
ulum	-12345
agan	-12346
▁forces	-12347
▁Đóng	-12348
▁indication	-12349
▁94	-12350
▁Because	-12351
▁RA	-12352
▁anniversary	-12353
▁moments	-12354
▁Pool	-12355
̣t	-12356
▁Charlie	-12357
▁Đèn	-12358
▁shift	-12359
][	-12360
▁announcement	-12361
▁county	-12362
▁Hoặc	-12363
▁Lock	-12364
▁fifth	-12365
▁Force	-12366
▁đạn	-12367
▁chart	-12368
▁Howard	-12369
▁Cla	-12370
▁passengers	-12371
_2	-12372
▁honey	-12373
ụn	-12374
:4	-12375
after	-12376
▁recorded	-12377
▁introduced	-12378
▁Wolf	-12379
▁constantly	-12380
mph	-12381
olt	-12382
▁Six	-12383
fly	-12384
▁Quả	-12385
▁Rút	-12386
opped	-12387
▁2019,	-12388
▁Pages	-12389
▁networks	-12390
▁owned	-12391
▁101	-12392
Go	-12393
PH	-12394
▁Final	-12395
▁legis	-12396
▁dent	-12397
▁mut	-12398
▁dreams	-12399
▁although	-12400
sân	-12401
▁recognizes	-12402
▁Phill	-12403
▁exposure	-12404
▁Joy	-12405
▁Mort	-12406
▁hab	-12407
▁Football	-12408
▁assign	-12409
▁euro	-12410
▁Prin	-12411
▁seed	-12412
ằn	-12413
▁diss	-12414
▁Rap	-12415
▁pure	-12416
▁acid	-12417
▁Reply	-12418
▁iTunes	-12419
▁PL	-12420
iot	-12421
▁entirely	-12422
▁las	-12423
asted	-12424
-01	-12425
▁column	-12426
▁prison	-12427
▁Kem	-12428
▁component	-12429
▁thầy	-12430
More	-12431
alt	-12432
▁(1/2)	-12433
▁trips	-12434
▁speech	-12435
▁happens	-12436
first	-12437
▁Brooklyn	-12438
▁Marg	-12439
▁hiring	-12440
iesel	-12441
▁nucle	-12442
Đọc	-12443
▁Bus	-12444
▁Multip	-12445
FT	-12446
shire	-12447
outique	-12448
▁catalog	-12449
▁Sáng	-12450
▁div	-12451
lando	-12452
ocation	-12453
▁Môi	-12454
▁Pain	-12455
▁Mason	-12456
▁kệ	-12457
▁inspect	-12458
iat	-12459
▁walks	-12460
▁riding	-12461
▁Gord	-12462
▁rubber	-12463
▁traveled	-12464
nie	-12465
▁bọt	-12466
times	-12467
▁bench	-12468
▁Sha	-12469
connect	-12470
▁generalizations	-12471
▁ensures	-12472
▁lọt	-12473
▁Spons	-12474
rô	-12475
▁Choc	-12476
onymous	-12477
▁matters	-12478
▁tonight	-12479
entle	-12480
▁750	-12481
gmail	-12482
BO	-12483
ridge	-12484
▁trouble	-12485
▁returned	-12486
▁workplace	-12487
▁Manh	-12488
▁interact	-12489
oured	-12490
▁Chev	-12491
▁knew	-12492
▁stability	-12493
▁quạt	-12494
▁Dù	-12495
enny	-12496
▁Nob	-12497
▁rapid	-12498
▁reporting	-12499
▁Quay	-12500
By	-12501
▁Meeting	-12502
▁knowledgeable	-12503
81	-12504
PL	-12505
▁EX	-12506
GT	-12507
▁Cli	-12508
▁Nancy	-12509
▁Theatre	-12510
UD	-12511
▁bướ	-12512
▁gel	-12513
▁teasp	-12514
▁regularly	-12515
▁Hóa	-12516
▁mph	-12517
▁jacket	-12518
ickens	-12519
comfort	-12520
▁Transport	-12521
▁perman	-12522
▁Jen	-12523
▁ratings	-12524
▁contributed	-12525
▁Intel	-12526
▁Professor	-12527
▁purple	-12528
▁đan	-12529
▁Army	-12530
▁completing	-12531
▁coat	-12532
▁Bab	-12533
▁Stew	-12534
▁Bruce	-12535
▁Antonio	-12536
wing	-12537
▁bigger	-12538
Mar	-12539
atar	-12540
annels	-12541
eston	-12542
▁Graph	-12543
=2	-12544
▁Mạng	-12545
▁mine	-12546
▁resulting	-12547
▁Oscar	-12548
▁Pie	-12549
▁hire	-12550
▁Dry	-12551
uling	-12552
▁Luân	-12553
▁debut	-12554
▁Directions	-12555
▁CM	-12556
▁explained	-12557
▁tôm	-12558
▁executive	-12559
▁tap	-12560
▁Liver	-12561
▁ocean	-12562
▁Irish	-12563
▁inher	-12564
▁cúng	-12565
▁Linux	-12566
▁shall	-12567
▁Overview	-12568
▁10)	-12569
▁Magic	-12570
▁Sold	-12571
-07	-12572
▁encoun	-12573
cious	-12574
▁Moore	-12575
▁listings	-12576
▁otherwise	-12577
38.	-12578
cam	-12579
▁jelly	-12580
eters	-12581
oop	-12582
ilot	-12583
bound	-12584
▁22.	-12585
▁terror	-12586
▁expressing	-12587
asm	-12588
▁đùa	-12589
▁concluded	-12590
▁bón	-12591
imer	-12592
▁Utah	-12593
▁graphic	-12594
kes	-12595
▁Instead	-12596
▁proof	-12597
▁indoor	-12598
▁60.	-12599
▁OK	-12600
▁Chế	-12601
▁selecting	-12602
▁Galaxy	-12603
▁paying	-12604
▁Mand	-12605
▁vend	-12606
iley	-12607
▁Lợi	-12608
▁Write	-12609
▁experiment	-12610
▁đuôi	-12611
▁wet	-12612
▁narrow	-12613
lder	-12614
▁Less	-12615
▁Fix	-12616
eno	-12617
▁newsletter	-12618
▁photographer	-12619
▁Agency	-12620
▁losing	-12621
▁Browse	-12622
▁Si	-12623
▁Complete	-12624
▁achievement	-12625
▁Grad	-12626
▁showc	-12627
▁Cass	-12628
burn	-12629
▁luc	-12630
▁Dealers	-12631
▁incredible	-12632
▁institutions	-12633
▁recre	-12634
laza	-12635
aysia	-12636
etti	-12637
▁Scr	-12638
▁greatest	-12639
▁polyester	-12640
5-	-12641
ipl	-12642
▁đẻ	-12643
▁lightweight	-12644
ertaining	-12645
▁1800	-12646
▁Chem	-12647
▁chèo	-12648
▁Nation	-12649
▁representative	-12650
▁gõ	-12651
▁Kings	-12652
urb	-12653
▁verify	-12654
▁na	-12655
▁Popular	-12656
▁certified	-12657
reason	-12658
▁offices	-12659
▁downtown	-12660
▁cy	-12661
điều	-12662
▁Previous	-12663
▁vector	-12664
9',	-12665
tin	-12666
UM	-12667
▁prioritize	-12668
▁conver	-12669
INE	-12670
▁relatable	-12671
▁grams	-12672
▁soci	-12673
▁Bright	-12674
▁Wire	-12675
▁Hop	-12676
▁nit	-12677
▁Shel	-12678
▁traveling	-12679
imension	-12680
tiếng	-12681
▁Years	-12682
▁dealing	-12683
▁displayed	-12684
stud	-12685
▁81	-12686
tác	-12687
▁Ni	-12688
▁Fat	-12689
▁officers	-12690
▁Wayne	-12691
onut	-12692
▁disag	-12693
▁Nông	-12694
▁volunteers	-12695
▁east	-12696
▁spark	-12697
▁planet	-12698
▁meets	-12699
yers	-12700
▁mặn	-12701
▁Fore	-12702
▁Viet	-12703
▁Villa	-12704
▁Dean	-12705
▁Americans	-12706
ũi	-12707
▁Ast	-12708
▁odd	-12709
▁Fle	-12710
piece	-12711
▁Christopher	-12712
fs	-12713
▁võ	-12714
▁Laura	-12715
▁Tokyo	-12716
▁recover	-12717
▁duration	-12718
▁demonstrates	-12719
▁Philippines	-12720
▁soul	-12721
▁Money	-12722
▁regional	-12723
▁giọt	-12724
▁Active	-12725
run	-12726
umer	-12727
▁tị	-12728
▁nine	-12729
▁Jobs	-12730
▁scheme	-12731
▁programme	-12732
▁definition	-12733
▁12:00	-12734
phân	-12735
▁CÁ	-12736
edes	-12737
▁Honda	-12738
▁Nev	-12739
▁none	-12740
▁magic	-12741
▁luộc	-12742
▁Điển	-12743
laz	-12744
▁""	-12745
▁compact	-12746
▁(0)	-12747
▁administr	-12748
▁recording	-12749
▁gram	-12750
▁Morgan	-12751
▁Restaurant	-12752
ardo	-12753
▁recommending	-12754
NY	-12755
▁Bit	-12756
ampion	-12757
▁forest	-12758
▁xốp	-12759
iform	-12760
▁Cambridge	-12761
▁zip	-12762
▁Corp	-12763
▁khâu	-12764
▁Industry	-12765
▁8)	-12766
▁SO	-12767
home	-12768
`,	-12769
elli	-12770
▁Bull	-12771
▁Mitch	-12772
▁Soph	-12773
/2018/	-12774
▁urban	-12775
▁advocating	-12776
▁attendees	-12777
asty	-12778
▁soccer	-12779
/4)	-12780
▁135	-12781
▁Nike	-12782
▁acknowledging	-12783
▁scores	-12784
▁Doctor	-12785
▁native	-12786
▁evolution	-12787
▁breast	-12788
▁gãy	-12789
▁<=	-12790
▁chán	-12791
▁thoảng	-12792
ML	-12793
▁Ka	-12794
NS	-12795
▁font	-12796
▁enjoyment	-12797
ports	-12798
cop	-12799
▁Performance	-12800
see	-12801
▁candies	-12802
▁lúa	-12803
▁ôm	-12804
}$	-12805
▁grey	-12806
▁replaced	-12807
ESS	-12808
nut	-12809
▁integrated	-12810
▁lift	-12811
wer	-12812
iler	-12813
▁shapes	-12814
theo	-12815
ppies	-12816
▁mouth	-12817
▁bong	-12818
▁judgment	-12819
▁certainly	-12820
bin	-12821
▁Stars	-12822
-05	-12823
emble	-12824
▁Install	-12825
effective	-12826
▁placeholder	-12827
5',	-12828
▁Hamilton	-12829
▁buys	-12830
▁satisfied	-12831
▁productivity	-12832
▁–.	-12833
▁Five	-12834
▁Hồng	-12835
▁involvement	-12836
▁joint	-12837
kee	-12838
eting	-12839
▁Deep	-12840
▁Nash	-12841
▁entertaining	-12842
▁spots	-12843
▁Effect	-12844
▁5-	-12845
▁AG	-12846
▁nô	-12847
▁AND	-12848
480	-12849
ART	-12850
▁điê	-12851
etooth	-12852
▁Archives	-12853
-08	-12854
▁Insp	-12855
respond	-12856
▁đồn	-12857
%)	-12858
▁200.	-12859
▁Đôn	-12860
▁billion	-12861
anth	-12862
▁trustworthy	-12863
John	-12864
▁absolutely	-12865
▁DS	-12866
rave	-12867
▁Process	-12868
▁scar	-12869
▁Common	-12870
▁therm	-12871
▁herself	-12872
atherine	-12873
anne	-12874
▁NYC	-12875
▁craftsmanship	-12876
Nếu	-12877
▁Johnny	-12878
▁Phoenix	-12879
▁Eastern	-12880
▁Treat	-12881
▁gaming	-12882
▁incorpor	-12883
▁extract	-12884
Can	-12885
▁attached	-12886
▁89	-12887
Ngày	-12888
▁gum	-12889
▁hem	-12890
▁tạ	-12891
▁Sel	-12892
▁hyper	-12893
▁continuing	-12894
gie	-12895
▁Nice	-12896
▁79	-12897
▁Rat	-12898
▁Strateg	-12899
Su	-12900
ando	-12901
▁injured	-12902
▁heav	-12903
7-	-12904
▁stitch	-12905
BM	-12906
▁lật	-12907
▁Subject	-12908
▁concent	-12909
asa	-12910
▁(12	-12911
▁elimin	-12912
▁gốm	-12913
chúng	-12914
▁xỉ	-12915
▁ultra	-12916
IO	-12917
▁Xử	-12918
▁Rout	-12919
▁inspire	-12920
▁paintings	-12921
▁Ridge	-12922
quis	-12923
▁Tuyệt	-12924
ni	-12925
▁Khối	-12926
▁coins	-12927
▁Publisher	-12928
▁Aaron	-12929
▁Index	-12930
▁lived	-12931
▁Civil	-12932
▁bands	-12933
lings	-12934
▁Grow	-12935
(\	-12936
hou	-12937
▁Hub	-12938
▁hosted	-12939
▁Finance	-12940
link	-12941
▁Khan	-12942
▁Added	-12943
▁breed	-12944
▁Orleans	-12945
:2	-12946
▁driven	-12947
▁buttons	-12948
▁UC	-12949
▁(30	-12950
onster	-12951
▁Od	-12952
▁Imm	-12953
▁1-2	-12954
▁Homes	-12955
DC	-12956
igo	-12957
ippi	-12958
▁Pad	-12959
▁83	-12960
▁Lux	-12961
▁gay	-12962
alpha	-12963
▁vạch	-12964
▁Falls	-12965
▁defined	-12966
▁compatible	-12967
organ	-12968
▁charity	-12969
▁celebrating	-12970
gor	-12971
aver	-12972
▁perhaps	-12973
▁wit	-12974
▁Leather	-12975
▁Lib	-12976
▁mài	-12977
▁padd	-12978
▁Nature	-12979
▁UV	-12980
arma	-12981
▁(@	-12982
▁yến	-12983
duces	-12984
▁grown	-12985
oming	-12986
▁tape	-12987
uge	-12988
▁Spain	-12989
▁Status	-12990
Or	-12991
▁stable	-12992
▁Channel	-12993
wy	-12994
▁viewer	-12995
lie	-12996
Gr	-12997
▁roses	-12998
▁tech	-12999
▁Cải	-13000
▁submitted	-13001
▁tablesp	-13002
▁savings	-13003
▁maps	-13004
▁customized	-13005
▁Mới	-13006
ouses	-13007
▁lamp	-13008
▁mindful	-13009
ogs	-13010
oly	-13011
▁tutorial	-13012
/02	-13013
▁ngụy	-13014
▁usual	-13015
▁Cleveland	-13016
flix	-13017
rence	-13018
▁eaten	-13019
iii	-13020
▁requests	-13021
ulu	-13022
▁plates	-13023
▁restrictions	-13024
▁exclus	-13025
▁entreprene	-13026
▁thổi	-13027
▁engaged	-13028
▁accommodate	-13029
▁yes	-13030
▁rum	-13031
333	-13032
▁portfolio	-13033
uction	-13034
▁papers	-13035
FS	-13036
▁Fan	-13037
avas	-13038
▁hole	-13039
▁stamp	-13040
▁Tết	-13041
▁vani	-13042
▁saving	-13043
:\	-13044
▁Ms	-13045
yler	-13046
▁kẹt	-13047
cor	-13048
▁Block	-13049
▁ái	-13050
fire	-13051
▁sculpt	-13052
▁93	-13053
Xem	-13054
▁Liệu	-13055
▁cray	-13056
▁Grace	-13057
▁limits	-13058
▁graduate	-13059
▁Mississ	-13060
▁communicates	-13061
fortunately	-13062
KS	-13063
▁Qua	-13064
▁calm	-13065
lass	-13066
▁lens	-13067
▁Jake	-13068
timore	-13069
orted	-13070
▁Rey	-13071
▁Includes	-13072
▁Gun	-13073
whel	-13074
▁Sơ	-13075
▁ko	-13076
▁Victor	-13077
▁actress	-13078
▁Weak	-13079
▁kilometers	-13080
▁Maybe	-13081
,..	-13082
cut	-13083
▁BA	-13084
wind	-13085
▁phộng	-13086
▁champions	-13087
▁Average	-13088
▁rice	-13089
▁patch	-13090
inst	-13091
▁guard	-13092
▁trib	-13093
▁seller	-13094
lig	-13095
omic	-13096
▁outfit	-13097
die	-13098
rove	-13099
endant	-13100
▁haz	-13101
▁lôi	-13102
▁Major	-13103
:20	-13104
▁Asian	-13105
▁Pictures	-13106
imm	-13107
▁Circ	-13108
▁Tweet	-13109
ngay	-13110
▁Rent	-13111
▁Mother	-13112
▁confusion	-13113
▁Floor	-13114
▁Fly	-13115
▁2022.	-13116
▁hái	-13117
▁drives	-13118
▁Question	-13119
rent	-13120
▁marked	-13121
▁Nich	-13122
▁cuts	-13123
▁xoắn	-13124
▁pursu	-13125
Se	-13126
▁đạc	-13127
▁preference	-13128
bay	-13129
▁mồ	-13130
▁Row	-13131
▁taxes	-13132
▁lội	-13133
trang	-13134
▁Wow	-13135
▁applying	-13136
-09	-13137
▁vân	-13138
▁vịt	-13139
▁raw	-13140
▁athletes	-13141
isure	-13142
▁investing	-13143
/09	-13144
sinh	-13145
▁Tob	-13146
▁Michelle	-13147
▁Arthur	-13148
icut	-13149
nder	-13150
dfrac	-13151
▁Rail	-13152
▁Afghanistan	-13153
14.	-13154
▁Application	-13155
jan	-13156
uum	-13157
▁RS	-13158
▁Beauty	-13159
agu	-13160
▁unusual	-13161
▁Ale	-13162
▁Death	-13163
▁justified	-13164
▁commission	-13165
.:	-13166
IME	-13167
she	-13168
▁dẻo	-13169
▁Benef	-13170
▁fault	-13171
▁Officer	-13172
ất	-13173
▁144	-13174
▁87	-13175
▁HR	-13176
▁initiative	-13177
▁Sean	-13178
▁Studies	-13179
stan	-13180
tốt	-13181
liers	-13182
▁domestic	-13183
fil	-13184
▁Pul	-13185
▁Trade	-13186
▁Chap	-13187
▁Trắng	-13188
MM	-13189
excitement	-13190
▁Distance	-13191
▁politics	-13192
"),	-13193
▁clarity	-13194
▁qualified	-13195
▁inner	-13196
rait	-13197
WS	-13198
▁Pok	-13199
▁Plant	-13200
▁ion	-13201
ivals	-13202
▁vấp	-13203
▁Trip	-13204
▁170	-13205
▁spin	-13206
▁cabinet	-13207
▁console	-13208
▁institution	-13209
▁Han	-13210
▁Larry	-13211
▁Prince	-13212
zo	-13213
elia	-13214
▁sail	-13215
▁ancient	-13216
▁template	-13217
▁Studios	-13218
▁monitoring	-13219
▁soil	-13220
▁Never	-13221
▁Jonathan	-13222
▁hoại	-13223
▁270	-13224
▁judgement	-13225
▁navigate	-13226
ALL	-13227
▁issued	-13228
▁assumed	-13229
▁ster	-13230
▁Wonder	-13231
▁wondering	-13232
▁5%	-13233
▁broadcast	-13234
gov	-13235
▁ec	-13236
ẳn	-13237
▁forced	-13238
▁Pi	-13239
▁Bio	-13240
▁excess	-13241
▁Princ	-13242
▁agencies	-13243
▁DE	-13244
▁ngoặc	-13245
▁Martha	-13246
▁Method	-13247
▁decreased	-13248
12,	-13249
forcement	-13250
▁Rot	-13251
▁developers	-13252
/07	-13253
▁align	-13254
▁Trộn	-13255
▁payments	-13256
▁flaws	-13257
▁2-3	-13258
▁Palm	-13259
UB	-13260
total	-13261
▁ratio	-13262
}{2}	-13263
▁universe	-13264
.[	-13265
▁heritage	-13266
eras	-13267
▁Brid	-13268
▁sọc	-13269
▁nhũng	-13270
▁hundreds	-13271
▁dắt	-13272
De	-13273
▁showcase	-13274
▁designers	-13275
▁mostly	-13276
rc	-13277
iven	-13278
▁loa	-13279
:3	-13280
istol	-13281
bby	-13282
▁Width	-13283
▁Vel	-13284
▁canc	-13285
▁Govern	-13286
▁whatever	-13287
best	-13288
▁sụp	-13289
▁Kal	-13290
GS	-13291
▁Cash	-13292
▁Slo	-13293
▁Emma	-13294
TR	-13295
▁Ian	-13296
▁understood	-13297
▁manufacturers	-13298
▁OF	-13299
▁Tiên	-13300
▁Discover	-13301
ngu	-13302
idi	-13303
width	-13304
▁command	-13305
▁Ky	-13306
▁beta	-13307
13.	-13308
▁judge	-13309
-14	-13310
▁xôi	-13311
▁Rele	-13312
▁proceeds	-13313
▁pockets	-13314
▁thỏ	-13315
▁demo	-13316
▁quantity	-13317
▁alternatives	-13318
aze	-13319
abs	-13320
ega	-13321
▁Bott	-13322
▁overlook	-13323
▁precision	-13324
▁usd	-13325
▁signing	-13326
otted	-13327
▁rò	-13328
▁defense	-13329
▁Lần	-13330
▁hood	-13331
▁panels	-13332
eland	-13333
▁script	-13334
▁portray	-13335
▁signature	-13336
▁edit	-13337
▁êm	-13338
irmingham	-13339
▁tack	-13340
▁enabled	-13341
▁?.	-13342
▁Barry	-13343
▁combine	-13344
▁ân	-13345
auc	-13346
▁Still	-13347
▁Marvel	-13348
▁Alt	-13349
▁Kong	-13350
▁liquid	-13351
FP	-13352
▁2009,	-13353
▁electrical	-13354
▁typical	-13355
▁sells	-13356
▁turns	-13357
▁Castle	-13358
present	-13359
▁\(\	-13360
quy	-13361
▁Technical	-13362
▁waist	-13363
ran	-13364
▁severity	-13365
▁Swed	-13366
▁Explore	-13367
▁Cell	-13368
▁languages	-13369
▁phác	-13370
▁disabled	-13371
:00.	-13372
igion	-13373
▁relatively	-13374
▁lão	-13375
▁Roger	-13376
▁Youth	-13377
▁Weather	-13378
alia	-13379
▁totally	-13380
ictionary	-13381
▁Advertisement	-13382
hot	-13383
▁Ti	-13384
▁Kel	-13385
ogical	-13386
▁GPS	-13387
▁4000	-13388
je	-13389
▁breaking	-13390
▁”	-13391
this	-13392
▁credible	-13393
▁Mission	-13394
▁phen	-13395
▁Study	-13396
▁willingness	-13397
▁boots	-13398
▁overly	-13399
rett	-13400
▁Commercial	-13401
▁ngâm	-13402
▁Yoga	-13403
đối	-13404
▁Orlando	-13405
▁nạ	-13406
▁Chấp	-13407
▁Jazz	-13408
▁cents	-13409
16.	-13410
▁Adams	-13411
▁prest	-13412
olas	-13413
▁para	-13414
itr	-13415
lon	-13416
▁NGƯ	-13417
erves	-13418
▁removal	-13419
▁weakness	-13420
▁Gọi	-13421
▁knowing	-13422
▁framework	-13423
▁compete	-13424
glas	-13425
▁bướm	-13426
▁Independ	-13427
▁Cream	-13428
▁10:00	-13429
▁2,5	-13430
urric	-13431
level	-13432
logic	-13433
▁Advanced	-13434
erto	-13435
▁hẳn	-13436
▁Amanda	-13437
lights	-13438
▁FOR	-13439
▁flavors	-13440
cn	-13441
▁Queens	-13442
▁sections	-13443
-16	-13444
▁(18	-13445
▁vital	-13446
?’	-13447
▁Tell	-13448
▁arrive	-13449
>(	-13450
▁motion	-13451
▁discovery	-13452
▁tie	-13453
giving	-13454
▁Official	-13455
▁Slee	-13456
▁Barbara	-13457
▁rows	-13458
▁Subscribe	-13459
▁laundry	-13460
▁specializes	-13461
Out	-13462
▁Gib	-13463
như	-13464
▁showed	-13465
▁founded	-13466
▁draft	-13467
▁Carter	-13468
En	-13469
▁Oliver	-13470
hình	-13471
2]	-13472
▁kẽ	-13473
▁CON	-13474
▁hoping	-13475
umbai	-13476
▁nic	-13477
▁Vintage	-13478
ogen	-13479
▁Contract	-13480
▁compliance	-13481
-04	-13482
▁Dig	-13483
▁Jerem	-13484
▁shock	-13485
lington	-13486
sl	-13487
▁preview	-13488
▁Linda	-13489
▁consuming	-13490
▁Uy	-13491
▁travelers	-13492
▁Tránh	-13493
▁Hannah	-13494
/.	-13495
▁Luke	-13496
▁flood	-13497
▁split	-13498
▁represented	-13499
▁THPT	-13500
▁donation	-13501
▁default	-13502
▁procedure	-13503
▁Psych	-13504
▁widely	-13505
yles	-13506
▁Featured	-13507
▁historic	-13508
▁quất	-13509
▁wireless	-13510
▁Barcelona	-13511
holders	-13512
quet	-13513
▁Pitts	-13514
▁transl	-13515
ẢI	-13516
▁chances	-13517
▁trained	-13518
▁rang	-13519
▁closer	-13520
▁affordability	-13521
▁wouldn	-13522
bb	-13523
▁Benj	-13524
ensation	-13525
odium	-13526
▁oneself	-13527
▁revealed	-13528
tầm	-13529
▁nhuộm	-13530
▁acting	-13531
▁negot	-13532
▁rated	-13533
isine	-13534
ivism	-13535
????	-13536
▁Fel	-13537
▁setup	-13538
▁Logo	-13539
▁finance	-13540
▁ME	-13541
▁mand	-13542
▁Future	-13543
▁aesthetically	-13544
▁handmade	-13545
▁versatility	-13546
adi	-13547
apping	-13548
▁smile	-13549
▁Chapter	-13550
CN	-13551
Col	-13552
▁opposing	-13553
▁Budd	-13554
▁suite	-13555
▁participating	-13556
▁kiêng	-13557
▁dresses	-13558
▁Chrome	-13559
inent	-13560
18.	-13561
sters	-13562
▁Vinc	-13563
ivities	-13564
looking	-13565
▁Liverpool	-13566
▁Pers	-13567
▁pens	-13568
uan	-13569
▁certification	-13570
▁Burg	-13571
▁poster	-13572
▁Russell	-13573
▁Bah	-13574
enter	-13575
▁Alaska	-13576
▁assets	-13577
▁Ve	-13578
▁vợt	-13579
grade	-13580
uters	-13581
▁decades	-13582
▁differentiate	-13583
Res	-13584
▁Again	-13585
▁broader	-13586
▁Challenge	-13587
~~~~	-13588
▁Dyn	-13589
▁Yahoo	-13590
Rep	-13591
▁determined	-13592
anka	-13593
-17	-13594
aneous	-13595
rs	-13596
'],	-13597
▁outdated	-13598
iden	-13599
▁Recipe	-13600
▁developments	-13601
+.	-13602
▁patio	-13603
▁Wikipedia	-13604
-03	-13605
▁Cafe	-13606
\\	-13607
▁Bấm	-13608
▁Guest	-13609
▁racing	-13610
▁Ye	-13611
▁domin	-13612
▁prime	-13613
▁thỉnh	-13614
▁frequently	-13615
▁Amount	-13616
nold	-13617
IDS	-13618
nham	-13619
▁nhúng	-13620
▁approaches	-13621
dy	-13622
-2.	-13623
▁tun	-13624
▁repeated	-13625
▁Triều	-13626
▁faces	-13627
▁Cold	-13628
▁inviting	-13629
▁consistency	-13630
▁improvements	-13631
▁stack	-13632
iche	-13633
third	-13634
▁Miễn	-13635
▁Trở	-13636
▁bug	-13637
▁Metro	-13638
-06	-13639
▁vot	-13640
▁utility	-13641
▁association	-13642
▁Julia	-13643
▁Sac	-13644
▁moder	-13645
▁Pinterest	-13646
len	-13647
▁Ton	-13648
▁hits	-13649
▁trim	-13650
▁repro	-13651
issions	-13652
▁Inv	-13653
borough	-13654
▁Got	-13655
▁Working	-13656
”..	-13657
▁noise	-13658
atively	-13659
▁gained	-13660
▁reception	-13661
▁sympy	-13662
▁9:00	-13663
ser	-13664
▁70%	-13665
▁scan	-13666
stream	-13667
grounds	-13668
▁franch	-13669
▁Coach	-13670
▁Junior	-13671
▁Esc	-13672
▁damaged	-13673
▁household	-13674
▁implemented	-13675
▁opera	-13676
eddings	-13677
lined	-13678
As	-13679
liances	-13680
▁91	-13681
▁nề	-13682
▁licensed	-13683
!).	-13684
▁om	-13685
Amer	-13686
▁Justice	-13687
/04	-13688
▁Parker	-13689
CR	-13690
-22	-13691
limited	-13692
▁Lawrence	-13693
▁turning	-13694
▁taxi	-13695
▁mirror	-13696
▁impacts	-13697
để	-13698
▁clubs	-13699
20,	-13700
▁Train	-13701
▁discovered	-13702
ateful	-13703
▁indeed	-13704
▁óc	-13705
▁Which	-13706
BR	-13707
char	-13708
▁Salad	-13709
entina	-13710
▁adjustable	-13711
▁Sửa	-13712
▁structures	-13713
▁zone	-13714
▁Bron	-13715
▁Fine	-13716
lar	-13717
▁True	-13718
ottage	-13719
▁evaluating	-13720
▁Walker	-13721
▁walked	-13722
▁entering	-13723
▁encouraged	-13724
▁Craig	-13725
▁Storage	-13726
abi	-13727
▁ber	-13728
pshire	-13729
▁Histor	-13730
▁Ideas	-13731
▁completion	-13732
00,	-13733
▁Nhiệt	-13734
▁constant	-13735
includ	-13736
▁mixture	-13737
hy	-13738
lik	-13739
▁mob	-13740
▁streets	-13741
▁pra	-13742
▁Gran	-13743
enders	-13744
02	-13745
▁relaxation	-13746
rock	-13747
▁ink	-13748
▁Doll	-13749
▁Palest	-13750
▁liked	-13751
▁channels	-13752
▁Hob	-13753
ormal	-13754
▁Planning	-13755
▁Edge	-13756
▁Baltimore	-13757
▁interviews	-13758
▁coher	-13759
▁Manhattan	-13760
eda	-13761
▁Esp	-13762
9)	-13763
store	-13764
▁gừng	-13765
▁marg	-13766
▁Sri	-13767
▁shelf	-13768
ificial	-13769
▁Domin	-13770
▁acrylic	-13771
▁Kath	-13772
▁2004.	-13773
othy	-13774
comple	-13775
▁Perry	-13776
▁proven	-13777
▁returning	-13778
▁Photograph	-13779
▁RO	-13780
▁arms	-13781
max	-13782
▁MLS	-13783
▁crayons	-13784
▁Chí	-13785
▁Battle	-13786
▁Easter	-13787
▁garlic	-13788
▁ES	-13789
annon	-13790
izers	-13791
▁Polit	-13792
LT	-13793
illiant	-13794
▁instance	-13795
alid	-13796
aton	-13797
▁treating	-13798
Pal	-13799
▁Pete	-13800
▁vượng	-13801
▁routine	-13802
orf	-13803
▁spray	-13804
▁Broadway	-13805
▁Vent	-13806
1).	-13807
▁finds	-13808
▁BMW	-13809
icted	-13810
ipper	-13811
▁cược	-13812
▁qualifications	-13813
-02	-13814
▁Touch	-13815
▁earrings	-13816
▁Weaknesses	-13817
▁fol	-13818
/06	-13819
mục	-13820
atis	-13821
▁Chelsea	-13822
đã	-13823
ruitment	-13824
▁BBQ	-13825
▁Dublin	-13826
▁Shopping	-13827
▁buff	-13828
▁thin	-13829
▁Schools	-13830
▁possibly	-13831
▁Thuốc	-13832
estone	-13833
▁Marie	-13834
▁vá	-13835
▁bold	-13836
▁Match	-13837
▁Crystal	-13838
▁Chocolate	-13839
▁moon	-13840
▁Pros	-13841
▁Tiết	-13842
▁Malaysia	-13843
ambo	-13844
▁rễ	-13845
mith	-13846
▁đấy	-13847
▁impossible	-13848
▁Medium	-13849
/08	-13850
nings	-13851
san	-13852
▁dust	-13853
▁kill	-13854
▁vul	-13855
▁fiber	-13856
";	-13857
▁Highway	-13858
AST	-13859
▁Hunter	-13860
▁Ukraine	-13861
▁participation	-13862
▁hub	-13863
▁extent	-13864
▁alongside	-13865
omi	-13866
▁''	-13867
▁nếp	-13868
▁thấu	-13869
▁Tickets	-13870
▁releases	-13871
ampa	-13872
▁animation	-13873
▁clock	-13874
▁Assistant	-13875
mates	-13876
▁Holl	-13877
andra	-13878
▁Phiếu	-13879
▁Sched	-13880
ieve	-13881
▁ĐÂY	-13882
stand	-13883
zes	-13884
▁",	-13885
▁triệu	-13886
izon	-13887
▁McK	-13888
▁von	-13889
▁workshops	-13890
▁deadline	-13891
▁struggling	-13892
▁(15	-13893
▁newly	-13894
▁mainly	-13895
▁978	-13896
▁debt	-13897
17.	-13898
04	-13899
▁tile	-13900
▁cưỡi	-13901
▁hưng	-13902
flow	-13903
bank	-13904
▁Beh	-13905
▁1998	-13906
▁appar	-13907
▁specialized	-13908
▁Hong	-13909
ffe	-13910
▁hông	-13911
joys	-13912
▁CBS	-13913
▁-2	-13914
▁medication	-13915
near	-13916
▁rust	-13917
▁tact	-13918
▁Eye	-13919
▁fellow	-13920
▁enthusiasm	-13921
?)	-13922
ụa	-13923
▁Cancer	-13924
orship	-13925
▁machines	-13926
▁Labor	-13927
iere	-13928
▁Boys	-13929
gets	-13930
here	-13931
▁nang	-13932
▁canada	-13933
▁cự	-13934
▁Quý	-13935
▁Jenny	-13936
▁prize	-13937
▁winners	-13938
▁Simple	-13939
▁agents	-13940
▁excellence	-13941
(3	-13942
▁react	-13943
advant	-13944
▁Cụm	-13945
mind	-13946
▁Neck	-13947
ods	-13948
▁Nico	-13949
▁Quant	-13950
LP	-13951
Tw	-13952
▁theory	-13953
▁súc	-13954
▁regions	-13955
▁ceiling	-13956
▁doubt	-13957
MO	-13958
▁Door	-13959
▁2025	-13960
▁FC	-13961
riers	-13962
▁Alb	-13963
▁maintained	-13964
/03	-13965
▁2008,	-13966
▁loving	-13967
▁Chicken	-13968
777	-13969
▁Legal	-13970
▁Gordon	-13971
lr	-13972
▁laugh	-13973
▁fiction	-13974
▁Mississippi	-13975
▁uốn	-13976
shirt	-13977
▁Louisiana	-13978
KE	-13979
▁ngoạn	-13980
▁purchases	-13981
▁Issue	-13982
▁Fabric	-13983
▁Hans	-13984
▁Roberts	-13985
▁empir	-13986
▁Switch	-13987
redict	-13988
▁'5	-13989
▁Mean	-13990
UI	-13991
string	-13992
▁array	-13993
▁Rank	-13994
▁Nghe	-13995
ilty	-13996
▁(9)	-13997
▁directed	-13998
nhe	-13999
▁Mas	-14000
▁Frame	-14001
▁soup	-14002
▁Format	-14003
igger	-14004
▁Connecticut	-14005
▁conflicting	-14006
▁nụ	-14007
▁Navy	-14008
▁Thompson	-14009
▁coaching	-14010
!”	-14011
marks	-14012
▁Altern	-14013
▁Following	-14014
▁shoulder	-14015
▁Nền	-14016
▁Craft	-14017
ệp	-14018
love	-14019
▁Dubai	-14020
▁Nurs	-14021
▁tv	-14022
▁obstacles	-14023
olves	-14024
ployment	-14025
▁strategic	-14026
uru	-14027
Star	-14028
▁wishes	-14029
▁occasions	-14030
▁workout	-14031
▁cows	-14032
product	-14033
▁reject	-14034
▁landscap	-14035
▁Cabin	-14036
boro	-14037
▁Madison	-14038
giá	-14039
▁hít	-14040
▁Brun	-14041
▁Đoàn	-14042
▁Stewart	-14043
▁Heat	-14044
DĐT	-14045
▁gò	-14046
▁sút	-14047
▁Monte	-14048
▁victims	-14049
▁Kính	-14050
▁Screen	-14051
▁dangers	-14052
▁Alf	-14053
▁Sắp	-14054
▁Syria	-14055
▁Hyd	-14056
▁Pas	-14057
avascript	-14058
▁Kid	-14059
▁faculty	-14060
45.	-14061
dong	-14062
▁chief	-14063
▁prints	-14064
oved	-14065
▁nát	-14066
▁Package	-14067
▁outlook	-14068
▁appreciated	-14069
▁Britain	-14070
▁kinds	-14071
▁Ferr	-14072
▁bicy	-14073
▁dess	-14074
arring	-14075
▁composition	-14076
▁gratitude	-14077
▁Wat	-14078
▁recip	-14079
▁nom	-14080
▁enjoys	-14081
▁contrad	-14082
▁directory	-14083
/15	-14084
eto	-14085
chest	-14086
▁centers	-14087
▁genuine	-14088
isms	-14089
▁sorry	-14090
▁Element	-14091
▁WI	-14092
mad	-14093
ushi	-14094
▁Bart	-14095
▁toward	-14096
=3	-14097
illo	-14098
▁pho	-14099
▁eventually	-14100
▁Jill	-14101
▁'8	-14102
second	-14103
▁narrator	-14104
▁Multiplying	-14105
phones	-14106
▁horses	-14107
▁donate	-14108
▁Hugh	-14109
ju	-14110
?).	-14111
chain	-14112
▁dad	-14113
▁Instruct	-14114
▁Pra	-14115
▁Listen	-14116
▁literature	-14117
flo	-14118
Free	-14119
▁guaranteed	-14120
▁findings	-14121
▁Dest	-14122
▁reduction	-14123
▁Stri	-14124
▁EN	-14125
ventional	-14126
▁Morning	-14127
19.	-14128
ighth	-14129
▁Nevada	-14130
▁Dak	-14131
▁gánh	-14132
▁rack	-14133
▁titles	-14134
▁residence	-14135
▁sharp	-14136
▁taught	-14137
▁Recommended	-14138
▁stronger	-14139
▁increases	-14140
IVE	-14141
▁128	-14142
green	-14143
DR	-14144
▁tro	-14145
rozen	-14146
▁cồn	-14147
rút	-14148
teen	-14149
▁Giày	-14150
▁moves	-14151
▁rid	-14152
▁Quote	-14153
erie	-14154
▁trusted	-14155
▁temperatures	-14156
UP	-14157
▁banks	-14158
▁Logic	-14159
▁Animal	-14160
gypt	-14161
▁-..	-14162
isy	-14163
▁FM	-14164
essed	-14165
▁Tea	-14166
▁Blood	-14167
▁ble	-14168
▁nick	-14169
boards	-14170
orer	-14171
▁Range	-14172
▁Tấm	-14173
▁flying	-14174
▁GP	-14175
▁slide	-14176
▁uniqu	-14177
utical	-14178
rightarrow	-14179
▁noticed	-14180
▁collections	-14181
▁phẩy	-14182
▁IC	-14183
ched	-14184
▁solving	-14185
hol	-14186
▁referencing	-14187
▁23.	-14188
▁BR	-14189
▁leaf	-14190
▁8:00	-14191
▁salary	-14192
ACK	-14193
sur	-14194
▁mấy	-14195
Hotel	-14196
aired	-14197
▁preferred	-14198
▁produces	-14199
▁Philip	-14200
▁Document	-14201
▁104	-14202
▁123	-14203
▁Pic	-14204
▁uncertainty	-14205
▁BI	-14206
▁Atlantic	-14207
▁cuồng	-14208
▁Sổ	-14209
▁blind	-14210
▁Trải	-14211
▁filling	-14212
▁tours	-14213
▁Nu	-14214
▁rig	-14215
▁Huấn	-14216
▁dropped	-14217
▁(2).	-14218
▁emails	-14219
▁Đổ	-14220
▁twitter	-14221
▁Benjamin	-14222
)^2	-14223
▁Rav	-14224
▁correspond	-14225
▁Spl	-14226
▁Kyle	-14227
▁exists	-14228
▁intelligence	-14229
▁Volume	-14230
▁wave	-14231
▁Ultra	-14232
itzer	-14233
agg	-14234
▁Sally	-14235
▁$5	-14236
▁Innov	-14237
▁phones	-14238
▁115	-14239
▁ray	-14240
▁Đen	-14241
▁Race	-14242
▁bonus	-14243
▁volunteer	-14244
▁Multi	-14245
▁drops	-14246
▁fundra	-14247
▁shipped	-14248
TL	-14249
▁71	-14250
▁resolve	-14251
!".	-14252
▁Julie	-14253
▁intel	-14254
▁except	-14255
▁Specifications	-14256
▁Bí	-14257
mers	-14258
uyen	-14259
▁socks	-14260
iza	-14261
▁rán	-14262
▁Gram	-14263
ologist	-14264
▁Tâm	-14265
▁crazy	-14266
▁sight	-14267
etal	-14268
▁cac	-14269
avirus	-14270
▁Hend	-14271
▁rỗng	-14272
pay	-14273
▁sườn	-14274
▁respected	-14275
py	-14276
15,	-14277
▁dram	-14278
esters	-14279
▁boot	-14280
▁Janet	-14281
▁chục	-14282
▁illeg	-14283
▁Bos	-14284
▁thạo	-14285
▁tỉ	-14286
▁Feel	-14287
▁viet	-14288
▁RV	-14289
▁Industrial	-14290
08	-14291
▁resolved	-14292
▁Danny	-14293
▁Butter	-14294
▁Vac	-14295
▁báu	-14296
▁democr	-14297
▁sentences	-14298
▁$(	-14299
▁Lif	-14300
uz	-14301
▁mold	-14302
quest	-14303
▁mask	-14304
▁Carm	-14305
▁Verm	-14306
▁yarn	-14307
{2	-14308
sum	-14309
▁diameter	-14310
▁designing	-14311
▁reinforces	-14312
igen	-14313
▁mood	-14314
▁(1,	-14315
▁twist	-14316
Pl	-14317
sequently	-14318
▁covering	-14319
ifier	-14320
▁Section	-14321
▁---	-14322
▁nhị	-14323
▁unn	-14324
oned	-14325
brit	-14326
▁Jamie	-14327
▁habits	-14328
▁closing	-14329
utor	-14330
▁Bond	-14331
▁awarded	-14332
▁Regional	-14333
▁Championship	-14334
▁Pap	-14335
▁lawn	-14336
Me	-14337
hours	-14338
▁entered	-14339
▁mổ	-14340
▁Kend	-14341
▁hunting	-14342
▁Bee	-14343
forward	-14344
▁Calendar	-14345
▁bin	-14346
......	-14347
▁iconic	-14348
▁bot	-14349
▁EUR	-14350
▁Anim	-14351
hesive	-14352
▁customize	-14353
900	-14354
▁rural	-14355
▁CV	-14356
vens	-14357
03	-14358
▁adequ	-14359
▁unless	-14360
▁ML	-14361
▁Bass	-14362
visions	-14363
▁Registration	-14364
▁demonstrated	-14365
▁Bồ	-14366
▁Say	-14367
▁acts	-14368
thành	-14369
▁Chuẩn	-14370
▁Tyler	-14371
▁Gear	-14372
▁Veter	-14373
▁heads	-14374
▁Tar	-14375
aba	-14376
gate	-14377
▁keo	-14378
▁acquis	-14379
inema	-14380
▁fasc	-14381
ecks	-14382
▁28.	-14383
There	-14384
▁reh	-14385
found	-14386
▁".	-14387
▁Trib	-14388
theast	-14389
▁parks	-14390
▁Franklin	-14391
▁dâ	-14392
▁angle	-14393
▁proceed	-14394
game	-14395
gal	-14396
▁tooth	-14397
aho	-14398
▁Ted	-14399
plays	-14400
▁Designed	-14401
▁0915.	-14402
ruption	-14403
▁Nelson	-14404
▁Dutch	-14405
Bay	-14406
▁hero	-14407
▁CNTT	-14408
▁khôn	-14409
▁intense	-14410
▁division	-14411
▁27.	-14412
▁Greek	-14413
▁escape	-14414
olar	-14415
oney	-14416
▁Sent	-14417
▁giật	-14418
▁toilet	-14419
robe	-14420
▁monitor	-14421
▁agricult	-14422
▁disadvant	-14423
▁subscription	-14424
▁Gate	-14425
ecessary	-14426
ivalent	-14427
▁Secretary	-14428
▁Administration	-14429
▁Eli	-14430
▁flooring	-14431
▁counsel	-14432
́i	-14433
uman	-14434
▁nếm	-14435
▁screens	-14436
izable	-14437
alsa	-14438
▁sốc	-14439
▁comic	-14440
understanding	-14441
▁dâm	-14442
▁Face	-14443
ibraries	-14444
▁doctors	-14445
▁Ready	-14446
▁ngoan	-14447
▁Together	-14448
▁Jewish	-14449
▁Cố	-14450
▁Lil	-14451
▁merch	-14452
people	-14453
8-	-14454
Ind	-14455
▁Fal	-14456
▁careful	-14457
▁cow	-14458
rated	-14459
▁Favor	-14460
fox	-14461
▁Bot	-14462
▁una	-14463
▁chậu	-14464
▁arguing	-14465
+1	-14466
Post	-14467
▁Netflix	-14468
▁Hương	-14469
▁colored	-14470
▁Attorney	-14471
ICE	-14472
▁seo	-14473
▁nhọn	-14474
▁actors	-14475
▁vòm	-14476
▁Cựu	-14477
▁blues	-14478
▁rewards	-14479
amine	-14480
▁mọng	-14481
▁Sugar	-14482
▁exterior	-14483
▁Lay	-14484
▁BHXH	-14485
▁aircraft	-14486
▁subscribe	-14487
▁tags	-14488
▁Early	-14489
▁Nướng	-14490
▁Birmingham	-14491
▁Pizza	-14492
▁candles	-14493
▁committee	-14494
▁newspaper	-14495
▁vine	-14496
▁frequency	-14497
▁proposal	-14498
▁carrying	-14499
disc	-14500
iated	-14501
▁Stra	-14502
▁occurs	-14503
▁lụa	-14504
▁beef	-14505
agues	-14506
▁Ay	-14507
▁Dal	-14508
master	-14509
emed	-14510
▁Rate	-14511
▁sick	-14512
▁cối	-14513
▁vill	-14514
▁Prices	-14515
▁Keith	-14516
▁researchers	-14517
gt	-14518
▁Sex	-14519
▁olive	-14520
▁Dragon	-14521
▁golden	-14522
▁cupcakes	-14523
▁Katie	-14524
▁chuộng	-14525
▁donations	-14526
▁familiarity	-14527
bad	-14528
fam	-14529
▁Draw	-14530
▁Rand	-14531
uki	-14532
___	-14533
otta	-14534
▁Glen	-14535
div	-14536
tech	-14537
▁amazon	-14538
▁Phạt	-14539
▁instruction	-14540
▁legend	-14541
.;	-14542
▁Users	-14543
▁jeans	-14544
700	-14545
▁Thủy	-14546
oustic	-14547
▁vert	-14548
▁wanting	-14549
▁ward	-14550
▁hanging	-14551
9-	-14552
▁belt	-14553
▁Marine	-14554
aceutical	-14555
▁Bị	-14556
▁acres	-14557
▁heating	-14558
▁profiles	-14559
iral	-14560
Donald	-14561
▁tiles	-14562
dri	-14563
ached	-14564
▁facilit	-14565
▁Mack	-14566
▁Terry	-14567
addy	-14568
urray	-14569
▁combat	-14570
▁Xô	-14571
▁Decor	-14572
_{	-14573
▁Lanc	-14574
▁lect	-14575
card	-14576
▁HERE	-14577
▁reads	-14578
▁Universal	-14579
▁Suites	-14580
▁difficulties	-14581
▁Nag	-14582
▁situated	-14583
▁Lag	-14584
▁promise	-14585
▁accurately	-14586
▁Randy	-14587
▁Lodge	-14588
rots	-14589
▁Purch	-14590
30,	-14591
▁TP	-14592
▁bốc	-14593
▁duty	-14594
▁Hem	-14595
▁Clay	-14596
▁screw	-14597
▁cọ	-14598
ervice	-14599
▁makeup	-14600
▁anecdotes	-14601
▁tastes	-14602
▁Practice	-14603
▁225	-14604
▁era	-14605
▁Mumbai	-14606
▁speaking	-14607
▁hes	-14608
▁expanding	-14609
merce	-14610
stick	-14611
▁Madrid	-14612
core	-14613
▁Ped	-14614
▁Egypt	-14615
▁saved	-14616
▁discip	-14617
▁potatoes	-14618
▁networking	-14619
▁LP	-14620
▁Skin	-14621
▁rough	-14622
▁chest	-14623
ski	-14624
▁Ing	-14625
▁Display	-14626
8&	-14627
pot	-14628
▁Stories	-14629
▁*.	-14630
▁childhood	-14631
▁Desk	-14632
pop	-14633
▁Cav	-14634
plates	-14635
phy	-14636
▁dioxide	-14637
▁Communications	-14638
▁Hạt	-14639
▁grant	-14640
▁khoái	-14641
BGDĐT	-14642
▁sending	-14643
▁bathrooms	-14644
▁Grade	-14645
inburgh	-14646
▁Montana	-14647
▁watched	-14648
▁sương	-14649
alyz	-14650
▁lắc	-14651
▁Rece	-14652
Nhà	-14653
imental	-14654
/05	-14655
▁rug	-14656
athers	-14657
▁roads	-14658
▁PT	-14659
▁tiệm	-14660
fi	-14661
roke	-14662
▁cúc	-14663
▁sed	-14664
▁Baker	-14665
pir	-14666
▁Cà	-14667
market	-14668
▁Excellent	-14669
Anh	-14670
var	-14671
▁Exchange	-14672
ratulations	-14673
▁Publication	-14674
▁permission	-14675
▁Urban	-14676
▁^	-14677
Công	-14678
rovers	-14679
▁Shore	-14680
▁manip	-14681
▁khuếch	-14682
▁raising	-14683
▁Move	-14684
▁stim	-14685
▁Jeremy	-14686
▁permanent	-14687
emy	-14688
olester	-14689
fear	-14690
▁Mạch	-14691
▁carpet	-14692
▁habit	-14693
▁Douglas	-14694
▁memorable	-14695
▁bias	-14696
▁Request	-14697
▁Ful	-14698
▁(10)	-14699
▁subjects	-14700
▁integration	-14701
Time	-14702
▁Tab	-14703
speed	-14704
▁Lâu	-14705
▁lucky	-14706
pages	-14707
▁112	-14708
▁Kam	-14709
▁UTC	-14710
▁attendance	-14711
................	-14712
▁£2	-14713
▁EC	-14714
acular	-14715
▁Solar	-14716
▁stations	-14717
với	-14718
oked	-14719
▁(100	-14720
▁planted	-14721
▁Sud	-14722
entials	-14723
▁Equipment	-14724
ORT	-14725
▁Juan	-14726
▁drum	-14727
▁Pharm	-14728
▁chapter	-14729
▁Bobby	-14730
▁MN	-14731
▁lady	-14732
▁Vietnam	-14733
▁Sciences	-14734
bn	-14735
ais	-14736
▁Grove	-14737
▁Var	-14738
▁exec	-14739
acter	-14740
▁Ngược	-14741
type	-14742
▁loans	-14743
▁aluminum	-14744
11,	-14745
▁90%	-14746
▁Fem	-14747
▁Il	-14748
▁lụt	-14749
▁thun	-14750
▁whis	-14751
▁Flowers	-14752
▁modified	-14753
matrix	-14754
aac	-14755
rets	-14756
▁búp	-14757
▁strip	-14758
▁bọ	-14759
▁Used	-14760
▁harvest	-14761
▁speakers	-14762
':	-14763
▁gai	-14764
▁Ranch	-14765
▁browse	-14766
▁alleged	-14767
▁Arc	-14768
▁Outdoor	-14769
▁Protection	-14770
▁enhanced	-14771
▁280	-14772
Hub	-14773
asha	-14774
▁Nhạc	-14775
Station	-14776
▁consume	-14777
▁summar	-14778
▁imagery	-14779
▁Birthday	-14780
▁pleasant	-14781
▁Located	-14782
One	-14783
▁lb	-14784
▁cab	-14785
▁chopped	-14786
▁Luôn	-14787
▁Vàng	-14788
▁foster	-14789
▁technological	-14790
▁Robin	-14791
▁mp	-14792
▁opens	-14793
▁Region	-14794
▁Suz	-14795
▁invite	-14796
▁Dh	-14797
▁interaction	-14798
edar	-14799
▁tiss	-14800
▁checked	-14801
▁complement	-14802
▁bôi	-14803
▁snap	-14804
▁caution	-14805
▁farmers	-14806
aware	-14807
▁soap	-14808
ECT	-14809
▁EST	-14810
▁Lượt	-14811
▁packed	-14812
▁Kỷ	-14813
▁Drop	-14814
fits	-14815
▁3.0	-14816
▁kar	-14817
▁Conn	-14818
▁timeless	-14819
▁Close	-14820
▁fabulous	-14821
▁Flex	-14822
▁tracking	-14823
▁describing	-14824
▁Items	-14825
▁Suy	-14826
▁cấy	-14827
▁babies	-14828
▁lesson	-14829
▁developer	-14830
▁generations	-14831
▁conservation	-14832
▁Lượng	-14833
▁approval	-14834
ummy	-14835
▁dot	-14836
▁refund	-14837
▁gardens	-14838
▁Flat	-14839
▁Dat	-14840
▁Defin	-14841
▁Organic	-14842
▁Hòa	-14843
▁enzy	-14844
▁shut	-14845
▁boards	-14846
▁Chat	-14847
▁bỏng	-14848
▁2000.	-14849
▁Korea	-14850
written	-14851
▁Keywords	-14852
▁Everything	-14853
olesterol	-14854
▁Hampshire	-14855
▁ngốc	-14856
▁Currently	-14857
▁Turkey	-14858
▁studying	-14859
▁BL	-14860
▁(50	-14861
▁Blvd	-14862
▁Senate	-14863
▁Ashley	-14864
acht	-14865
▁RAM	-14866
▁kilog	-14867
▁powered	-14868
▁Maur	-14869
▁ax	-14870
okia	-14871
▁Ghế	-14872
▁Friend	-14873
▁Marcus	-14874
▁Greater	-14875
́c	-14876
▁Occ	-14877
▁Gray	-14878
thể	-14879
ierra	-14880
▁1-8	-14881
▁lùi	-14882
▁măng	-14883
▁absor	-14884
▁Options	-14885
lia	-14886
▁Abb	-14887
▁xịt	-14888
▁1600	-14889
▁Repair	-14890
▁Pun	-14891
quiry	-14892
▁surroundings	-14893
▁stopped	-14894
▁chickens	-14895
inating	-14896
▁Campbell	-14897
▁impression	-14898
▁Đan	-14899
itled	-14900
▁dỡ	-14901
▁Valentine	-14902
▁hybrid	-14903
▁hướng	-14904
▁HS	-14905
▁cogn	-14906
▁consultation	-14907
▁chinh	-14908
năm	-14909
▁26.	-14910
▁Perc	-14911
▁floral	-14912
▁cạn	-14913
▁Arkansas	-14914
▁Berg	-14915
▁mượn	-14916
▁elaborates	-14917
▁thâm	-14918
hh	-14919
▁RT	-14920
author	-14921
asures	-14922
▁$4	-14923
▁Kennedy	-14924
▁eligible	-14925
187	-14926
▁hats	-14927
▁Breakfast	-14928
airy	-14929
Đúng	-14930
▁branch	-14931
▁trucks	-14932
▁vibrant	-14933
▁Gree	-14934
Net	-14935
▁dough	-14936
esto	-14937
▁Ze	-14938
▁examination	-14939
NE	-14940
▁Chức	-14941
▁Integr	-14942
▁compliment	-14943
etary	-14944
▁xế	-14945
▁destroy	-14946
▁yours	-14947
▁Tờ	-14948
▁mortgage	-14949
▁jun	-14950
▁Stop	-14951
viously	-14952
▁arrival	-14953
▁Lucy	-14954
▁plane	-14955
▁module	-14956
▁oils	-14957
▁neutral	-14958
▁retirement	-14959
▁AZ	-14960
▁1920	-14961
▁Neil	-14962
▁inventory	-14963
▁preventing	-14964
▁Tầm	-14965
▁Everyone	-14966
▁protecting	-14967
GE	-14968
622	-14969
▁entrance	-14970
▁Availability	-14971
▁1996	-14972
▁ghét	-14973
▁Storm	-14974
CL	-14975
▁legacy	-14976
▁Cảng	-14977
▁Sara	-14978
▁Lands	-14979
▁puzzle	-14980
▁compos	-14981
▁gentle	-14982
▁couples	-14983
▁pear	-14984
▁outdoors	-14985
▁None	-14986
ensing	-14987
▁Linked	-14988
eeks	-14989
▁writes	-14990
▁dual	-14991
▁2020,	-14992
▁Cer	-14993
arehouse	-14994
▁Canon	-14995
▁chặng	-14996
▁diseases	-14997
%20	-14998
:<	-14999
=4	-15000
▁Tro	-15001
▁bọn	-15002
amon	-15003
▁distingu	-15004
▁Màn	-15005
▁struggle	-15006
▁wildlife	-15007
arium	-15008
▁Todd	-15009
▁crafted	-15010
▁delivering	-15011
▁Safe	-15012
▁horm	-15013
ampton	-15014
▁pies	-15015
▁stake	-15016
▁stance	-15017
és	-15018
▁Biết	-15019
-25	-15020
▁wins	-15021
Br	-15022
▁::	-15023
antha	-15024
eeping	-15025
▁appreciating	-15026
iy	-15027
cia	-15028
▁Khung	-15029
▁Listing	-15030
▁Hit	-15031
ystem	-15032
▁organizing	-15033
▁specialist	-15034
isha	-15035
▁mad	-15036
▁Drug	-15037
▁Think	-15038
▁bou	-15039
becca	-15040
▁LE	-15041
▁cành	-15042
▁mystery	-15043
hang	-15044
▁Due	-15045
▁Those	-15046
▁Kil	-15047
▁producer	-15048
tan	-15049
▁Polyester	-15050
▁Had	-15051
▁motivation	-15052
▁Medic	-15053
umblr	-15054
vised	-15055
▁Certified	-15056
▁Associated	-15057
xa	-15058
▁vel	-15059
▁yield	-15060
▁Francis	-15061
▁720	-15062
lectual	-15063
FR	-15064
▁currency	-15065
artz	-15066
▁Saudi	-15067
▁asset	-15068
▁fence	-15069
▁incent	-15070
▁friendship	-15071
charge	-15072
▁Delta	-15073
ến	-15074
▁Pam	-15075
▁transmission	-15076
▁Interior	-15077
▁smoke	-15078
▁musicians	-15079
iane	-15080
▁Nhi	-15081
▁Beng	-15082
▁argue	-15083
▁oppon	-15084
ASH	-15085
olic	-15086
trans	-15087
screen	-15088
iah	-15089
▁sarah	-15090
▁clinic	-15091
ẵng	-15092
▁ốm	-15093
▁repairs	-15094
▁cooperation	-15095
▁vess	-15096
▁disagree	-15097
▁sensitive	-15098
ỉm	-15099
▁wines	-15100
plies	-15101
▁Mario	-15102
▁BE	-15103
bean	-15104
▁xen	-15105
▁260	-15106
▁Lucas	-15107
▁overwhel	-15108
▁Materials	-15109
▁phơi	-15110
▁invitation	-15111
▁significantly	-15112
▁Ku	-15113
▁Tốc	-15114
abetes	-15115
▁Miles	-15116
▁imagine	-15117
andal	-15118
▁Dung	-15119
▁Fern	-15120
▁increasingly	-15121
=13	-15122
▁Ple	-15123
▁cúm	-15124
▁alike	-15125
LD	-15126
xin	-15127
▁oh	-15128
comp	-15129
▁80.	-15130
▁Tap	-15131
▁Parts	-15132
▁ranging	-15133
▁smoking	-15134
▁relates	-15135
▁Siêu	-15136
▁portion	-15137
▁compelling	-15138
GBT	-15139
eded	-15140
▁Vice	-15141
▁embrace	-15142
õm	-15143
break	-15144
▁vulner	-15145
▁conveying	-15146
uity	-15147
▁cush	-15148
▁efficiently	-15149
▁relaxing	-15150
/5)	-15151
chỉ	-15152
▁NA	-15153
▁Leo	-15154
▁Nar	-15155
itations	-15156
07	-15157
▁Trách	-15158
ci	-15159
thal	-15160
▁gri	-15161
▁phế	-15162
shine	-15163
allic	-15164
ureau	-15165
▁closely	-15166
▁tourists	-15167
▁brass	-15168
▁visits	-15169
▁Created	-15170
▁Analy	-15171
▁visible	-15172
▁Pittsburgh	-15173
metic	-15174
▁Dear	-15175
▁isol	-15176
▁drama	-15177
▁mụn	-15178
▁alive	-15179
▁Having	-15180
▁Cameron	-15181
▁Wend	-15182
▁2007,	-15183
▁timely	-15184
▁reaching	-15185
ellite	-15186
achelor	-15187
▁franchise	-15188
erse	-15189
alph	-15190
▁Sof	-15191
▁tưới	-15192
▁newest	-15193
09	-15194
UE	-15195
ools	-15196
▁Mob	-15197
▁lanh	-15198
▁tiễn	-15199
oscow	-15200
▁xướng	-15201
▁nuts	-15202
▁Upper	-15203
▁Simply	-15204
balls	-15205
icide	-15206
▁7:00	-15207
▁Vill	-15208
pace	-15209
▁Sue	-15210
▁voc	-15211
▁Gardens	-15212
▁footage	-15213
06	-15214
▁Chú	-15215
▁'3	-15216
▁arom	-15217
▁supposed	-15218
depth	-15219
▁tsp	-15220
neutral	-15221
▁Wright	-15222
▁Colour	-15223
▁ing	-15224
round	-15225
▁Betty	-15226
sterdam	-15227
▁Graham	-15228
enne	-15229
▁bracelet	-15230
raid	-15231
▁Commons	-15232
▁Reference	-15233
▁lies	-15234
▁safely	-15235
▁Patri	-15236
▁bodies	-15237
▁'7	-15238
▁LT	-15239
▁1997	-15240
chu	-15241
usc	-15242
▁Tools	-15243
▁colorful	-15244
▁Sterling	-15245
▁semi	-15246
aturally	-15247
▁Kap	-15248
▁copper	-15249
▁nutrition	-15250
▁implication	-15251
▁Nathan	-15252
ycled	-15253
▁chôn	-15254
▁sne	-15255
▁formed	-15256
▁Nằm	-15257
attraction	-15258
path	-15259
▁passionate	-15260
idae	-15261
▁genres	-15262
ousing	-15263
rup	-15264
sold	-15265
▁heo	-15266
▁gót	-15267
▁nhã	-15268
▁-3	-15269
urse	-15270
rogen	-15271
▁khóc	-15272
▁appliances	-15273
▁Tàu	-15274
ensus	-15275
▁Magn	-15276
▁keyboard	-15277
ggy	-15278
▁'4	-15279
▁mol	-15280
▁1950	-15281
▁Login	-15282
▁enforcement	-15283
iko	-15284
▁Duke	-15285
▁Enterprise	-15286
bt	-15287
2939	-15288
▁ao	-15289
▁hao	-15290
▁foam	-15291
▁liber	-15292
ema	-15293
▁khéo	-15294
▁execut	-15295
▁spokes	-15296
orkshire	-15297
ÔI	-15298
▁1995	-15299
▁shell	-15300
2).	-15301
▁cul	-15302
▁unnecessary	-15303
▁recru	-15304
▁dispos	-15305
▁certificate	-15306
ùn	-15307
▁Trad	-15308
▁accused	-15309
▁Bluetooth	-15310
irs	-15311
ishes	-15312
▁telling	-15313
▁Mitchell	-15314
UC	-15315
ede	-15316
atri	-15317
▁cọc	-15318
▁Better	-15319
inals	-15320
umbing	-15321
▁tries	-15322
▁Spirit	-15323
▁Richmond	-15324
tri	-15325
▁Alpha	-15326
▁Blues	-15327
esting	-15328
▁quyện	-15329
▁9)	-15330
▁Dif	-15331
▁cabinets	-15332
oca	-15333
▁(40	-15334
▁15%	-15335
▁tasty	-15336
▁decorative	-15337
▁pig	-15338
/2019/	-15339
▁khuất	-15340
▁samples	-15341
ifting	-15342
▁Furniture	-15343
-1)	-15344
BB	-15345
reet	-15346
tham	-15347
conven	-15348
▁léo	-15349
▁Adult	-15350
▁somewhat	-15351
▁cuisine	-15352
▁Barn	-15353
▁30-	-15354
▁gara	-15355
▁khao	-15356
▁holes	-15357
▁nail	-15358
▁answered	-15359
▁phenomen	-15360
xic	-15361
▁exercises	-15362
▁7:30	-15363
▁Discussion	-15364
▁cod	-15365
▁pdf	-15366
▁ráo	-15367
valid	-15368
▁Plaza	-15369
▁Tower	-15370
▁Turk	-15371
▁nylon	-15372
iph	-15373
olec	-15374
▁wool	-15375
▁adopted	-15376
▁nutritional	-15377
▁175	-15378
▁Pix	-15379
▁fib	-15380
▁mush	-15381
haust	-15382
▁rolls	-15383
▁SF	-15384
▁Cou	-15385
▁Chamber	-15386
▁XL	-15387
▁debate	-15388
▁Prep	-15389
inding	-15390
▁grateful	-15391
agne	-15392
▁pregnancy	-15393
▁realistic	-15394
mins	-15395
enton	-15396
▁ye	-15397
▁Pos	-15398
▁Clar	-15399
▁noted	-15400
anyon	-15401
▁Basket	-15402
▁Collins	-15403
▁nứt	-15404
▁Ident	-15405
ịa	-15406
whe	-15407
arts	-15408
▁gang	-15409
▁thiết	-15410
▁browsing	-15411
▁suppliers	-15412
adows	-15413
▁Thích	-15414
▁celebrated	-15415
▁Cob	-15416
▁rings	-15417
▁Being	-15418
▁tatto	-15419
▁cooked	-15420
roider	-15421
/13	-15422
▁worst	-15423
▁decade	-15424
bất	-15425
bohyd	-15426
▁Therap	-15427
▁Bou	-15428
▁uncon	-15429
astroph	-15430
▁council	-15431
▁singing	-15432
Cu	-15433
▁Honey	-15434
BYT	-15435
▁Costa	-15436
▁trick	-15437
▁choáng	-15438
sor	-15439
▁ending	-15440
Thêm	-15441
▁enroll	-15442
5&	-15443
▁sin	-15444
▁gate	-15445
ropri	-15446
▁brew	-15447
▁sacr	-15448
ds	-15449
▁trùm	-15450
▁finest	-15451
oken	-15452
▁xổ	-15453
zi	-15454
erk	-15455
ribution	-15456
▁keys	-15457
▁tiny	-15458
EB	-15459
▁fur	-15460
bag	-15461
Liên	-15462
▁Thi	-15463
529	-15464
▁Lav	-15465
▁breaks	-15466
onavirus	-15467
▁Designer	-15468
▁possibilities	-15469
▁Archive	-15470
▁shaped	-15471
▁attributed	-15472
ingo	-15473
itis	-15474
▁Sông	-15475
▁SL	-15476
▁suffering	-15477
▁4.5	-15478
▁writers	-15479
▁fireplace	-15480
▁ngặt	-15481
▁vành	-15482
▁circle	-15483
▁muscle	-15484
▁Path	-15485
gow	-15486
ilst	-15487
quan	-15488
▁102	-15489
▁mart	-15490
▁Employ	-15491
▁Morris	-15492
NO	-15493
Des	-15494
▁2006,	-15495
▁Fitness	-15496
itu	-15497
▁Exam	-15498
▁wrap	-15499
▁HA	-15500
▁universal	-15501
▁126	-15502
▁Pel	-15503
5.000	-15504
plan	-15505
▁Veh	-15506
apeut	-15507
▁230	-15508
follow	-15509
▁Carlos	-15510
News	-15511
▁bina	-15512
▁6-	-15513
▁Cad	-15514
▁Isabel	-15515
▁Ce	-15516
▁Scar	-15517
unches	-15518
▁PD	-15519
▁empirical	-15520
▁cann	-15521
▁Remember	-15522
▁Fig	-15523
▁CỦ	-15524
▁referred	-15525
▁curric	-15526
▁millions	-15527
▁Corporate	-15528
▁Paint	-15529
▁initiatives	-15530
kan	-15531
regard	-15532
.-	-15533
▁Inside	-15534
120	-15535
▁Nutr	-15536
▁requirement	-15537
▁comedy	-15538
▁documentary	-15539
▁Loan	-15540
▁conv	-15541
▁nhặt	-15542
▁Cisco	-15543
▁Brothers	-15544
▁documentation	-15545
array	-15546
iaz	-15547
idas	-15548
▁seam	-15549
natural	-15550
arth	-15551
bsp	-15552
▁LGBT	-15553
▁frames	-15554
▁spam	-15555
quiries	-15556
▁wifi	-15557
telling	-15558
▁CỦA	-15559
▁Mong	-15560
▁Mười	-15561
▁Letter	-15562
encer	-15563
scale	-15564
▁Sin	-15565
▁broke	-15566
▁Samuel	-15567
▁removing	-15568
▁fallacies	-15569
pu	-15570
▁affects	-15571
▁illness	-15572
▁consulting	-15573
oms	-15574
▁Canc	-15575
aza	-15576
quer	-15577
▁Potter	-15578
stock	-15579
spec	-15580
▁assembly	-15581
gary	-15582
pers	-15583
▁consumed	-15584
▁£3	-15585
▁iPod	-15586
▁sticks	-15587
umble	-15588
▁Excel	-15589
▁indicator	-15590
auge	-15591
▁Tool	-15592
▁mouse	-15593
▁Edinburgh	-15594
▁365	-15595
▁kèn	-15596
▁Peters	-15597
▁guilty	-15598
▁reinforce	-15599
▁Soul	-15600
CAA	-15601
image	-15602
▁ấu	-15603
▁kế	-15604
▁WiFi	-15605
▁pond	-15606
▁resil	-15607
40,	-15608
▁tort	-15609
▁western	-15610
ME	-15611
▁Hood	-15612
▁Lost	-15613
▁Quầy	-15614
▁investments	-15615
▁Filed	-15616
▁(60	-15617
▁189	-15618
block	-15619
▁contained	-15620
Sự	-15621
▁AV	-15622
hoa	-15623
▁donated	-15624
value	-15625
▁nghiêng	-15626
▁Mercedes	-15627
/2016/	-15628
▁Walter	-15629
▁Mick	-15630
▁vanilla	-15631
▁Wiki	-15632
▁pulled	-15633
NC	-15634
May	-15635
▁vit	-15636
▁vặt	-15637
▁filed	-15638
▁surve	-15639
▁Getting	-15640
▁MC	-15641
▁Cant	-15642
▁feas	-15643
▁Built	-15644
mal	-15645
▁186	-15646
rying	-15647
▁EV	-15648
HI	-15649
▁Points	-15650
▁Airlines	-15651
▁refriger	-15652
▁religion	-15653
MD	-15654
▁reconcile	-15655
▁electricity	-15656
▁Hud	-15657
▁massive	-15658
aca	-15659
exp	-15660
▁crystal	-15661
▁operate	-15662
▁authenticity	-15663
▁Extra	-15664
Lear	-15665
▁Answer	-15666
licated	-15667
▁Warren	-15668
▁Message	-15669
nghe	-15670
▁'9	-15671
▁enthusi	-15672
▁Jos	-15673
amental	-15674
▁interpretation	-15675
▁CAR	-15676
▁mượt	-15677
▁Brandon	-15678
/18	-15679
opy	-15680
▁introducing	-15681
▁proposition	-15682
TW	-15683
▁Bờ	-15684
▁bú	-15685
Link	-15686
▁Crown	-15687
▁Stanley	-15688
▁Production	-15689
▁reform	-15690
▁Showing	-15691
▁teaspoon	-15692
ugu	-15693
rob	-15694
▁sảng	-15695
▁Nghĩa	-15696
▁vội	-15697
▁thoughtful	-15698
▁Hat	-15699
▁Xanh	-15700
Ne	-15701
eties	-15702
▁Bring	-15703
▁compass	-15704
▁Margaret	-15705
.1,	-15706
▁Sr	-15707
▁integ	-15708
▁phanh	-15709
▁Parking	-15710
▁derived	-15711
▁instant	-15712
ệm	-15713
▁đống	-15714
▁recall	-15715
▁generated	-15716
pn	-15717
..."	-15718
[...]
